function [Y,Xf,Af] = myNeuralNetworkFunction(X,~,~)
%MYNEURALNETWORKFUNCTION neural network simulation function.
%
% Generated by Neural Network Toolbox function genFunction, 15-Sep-2018 15:35:29.
%
% [Y] = myNeuralNetworkFunction(X,~,~) takes these arguments:
%
%   X = 1xTS cell, 1 inputs over TS timesteps
%   Each X{1,ts} = Qx10 matrix, input #1 at timestep ts.
%
% and returns:
%   Y = 1xTS cell of 1 outputs over TS timesteps.
%   Each Y{1,ts} = Qx1 matrix, output #1 at timestep ts.
%
% where Q is number of samples (or series) and TS is the number of timesteps.

%#ok<*RPMT0>

% ===== NEURAL NETWORK CONSTANTS =====

% Input 1
x1_step1.xoffset = [1147;51;17;18061.2;15;1;1;1;1;14337];
x1_step1.gain = [0.00014168319637291;0.0338983050847458;0.0476190476190476;9.67237256044628e-05;0.0377358490566038;0.25;1;0.0833333333333333;1;0.000121425535790177];
x1_step1.ymin = -1;

% Layer 1
b1 = [-0.00085897859903632579372;-0.32196991001972868895;0.00086542270724090106584;0.00087344342231725398146;0.0010743258572864934196;0.4963097093776979718;0.045367224843679762603;0.33098393691785382709];
IW1_1 = [-0.01440857197336837224 -0.014735593113145267416 -0.011098779029967233145 0.0031365373562026554848 -0.0063868666859292844498 -0.00072884751724392523187 0.0042649933482335825041 0.0031978715357494063437 -0.0067358417002002348231 0.022167735244008640594;0.066275090123274801868 -0.12096811625650315258 0.36228271027415681615 -0.097764384485656316559 0.39957577770421792707 0.21334654772848063442 0.55037163308988623633 0.067650172024267929416 -0.44605879007372600809 -0.28010724124626434905;0.014515743057056863796 0.014845259072482741569 0.011181125157078792773 -0.0031607039418544498506 0.0064333656253032049654 0.00073231321816649035984 -0.0042955078771342814978 -0.0032223103926751323588 0.0067838701104293071958 -0.022332577075174223774;0.014649093015725225125 0.014981715364188801995 0.011283580186164344009 -0.003190799852864575209 0.0064911916188431523916 0.00073656510046583205734 -0.0043334380739105818683 -0.003252739655803566117 0.006843565523887256731 -0.022537684187039573602;0.017970552045402151536 0.018381350561058374532 0.013833303738909182024 -0.0039505486222979023514 0.0079193786266707789923 0.00081916285470401233298 -0.0052633157454781854395 -0.0040187407672678358839 0.0083051957657509969252 -0.027646166644210927454;-0.00033441063796673872743 -0.005276145641482336314 -0.15428774814201823284 0.016533688782360195235 -0.36700994297895245255 -0.17681557062002956071 0.25068619082971316248 0.14980076788206667104 -0.32583968207688224217 0.15464480357729104565;-0.10185766030246781733 -0.22962966006221011139 0.19885070483949138231 -0.43415580201697212548 0.19817198277912831395 0.40572484932819447012 0.31270938395341546512 0.24750905863019179165 0.5404983906259491766 -0.20560102166386526323;0.33856825864619821687 0.28900747216506866843 0.049063449173186321484 0.33489774705149549794 0.34425785563326644079 -0.22288355023366926422 -0.045128729913495709003 0.30054204849616156237 0.58198147254481435997 0.15942402401199309847];

% Layer 2
b2 = 0.024384412511080776065;
LW2_1 = [-0.034192326645547083119 0.71473136821755689496 0.034446814791515859011 0.03476347222244470514 0.04265264304908728682 -0.62589279944167985903 -0.67091634168564218133 0.77368632484970811802];

% Output 1
y1_step1.ymin = -1;
y1_step1.gain = 3.14134283610484e-05;
y1_step1.xoffset = 16578.93;

% ===== SIMULATION ========

% Format Input Arguments
isCellX = iscell(X);
if ~isCellX
    X = {X};
end

% Dimensions
TS = size(X,2); % timesteps
if ~isempty(X)
    Q = size(X{1},1); % samples/series
else
    Q = 0;
end

% Allocate Outputs
Y = cell(1,TS);

% Time loop
for ts=1:TS
    
    % Input 1
    X{1,ts} = X{1,ts}';
    Xp1 = mapminmax_apply(X{1,ts},x1_step1);
    
    % Layer 1
    a1 = tansig_apply(repmat(b1,1,Q) + IW1_1*Xp1);
    
    % Layer 2
    a2 = repmat(b2,1,Q) + LW2_1*a1;
    
    % Output 1
    Y{1,ts} = mapminmax_reverse(a2,y1_step1);
    Y{1,ts} = Y{1,ts}';
end

% Final Delay States
Xf = cell(1,0);
Af = cell(2,0);

% Format Output Arguments
if ~isCellX
    Y = cell2mat(Y);
end
end

% ===== MODULE FUNCTIONS ========

% Map Minimum and Maximum Input Processing Function
function y = mapminmax_apply(x,settings)
y = bsxfun(@minus,x,settings.xoffset);
y = bsxfun(@times,y,settings.gain);
y = bsxfun(@plus,y,settings.ymin);
end

% Sigmoid Symmetric Transfer Function
function a = tansig_apply(n,~)
a = 2 ./ (1 + exp(-2*n)) - 1;
end

% Map Minimum and Maximum Output Reverse-Processing Function
function x = mapminmax_reverse(y,settings)
x = bsxfun(@minus,y,settings.ymin);
x = bsxfun(@rdivide,x,settings.gain);
x = bsxfun(@plus,x,settings.xoffset);
end
