function [Y,Xf,Af] = myNeuralNetworkFunction(X,~,~)
%MYNEURALNETWORKFUNCTION neural network simulation function.
%
% Generated by Neural Network Toolbox function genFunction, 15-Sep-2018 19:58:07.
%
% [Y] = myNeuralNetworkFunction(X,~,~) takes these arguments:
%
%   X = 1xTS cell, 1 inputs over TS timesteps
%   Each X{1,ts} = Qx10 matrix, input #1 at timestep ts.
%
% and returns:
%   Y = 1xTS cell of 1 outputs over TS timesteps.
%   Each Y{1,ts} = Qx1 matrix, output #1 at timestep ts.
%
% where Q is number of samples (or series) and TS is the number of timesteps.

%#ok<*RPMT0>

% ===== NEURAL NETWORK CONSTANTS =====

% Input 1
x1_step1.xoffset = [1147;51;17;18061.2;15;1;1;1;1;14337];
x1_step1.gain = [0.00014168319637291;0.0338983050847458;0.0476190476190476;9.67237256044628e-05;0.0377358490566038;0.25;1;0.0833333333333333;1;0.000121425535790177];
x1_step1.ymin = -1;

% Layer 1
b1 = [1.6980195341365478257;-1.5573410316762450467;-0.75897590276405346721;-0.28529082290711055281;-0.013006053255323501983;1.3214536732485213655;0.57454033395488690594;0.31522293454671906909;-1.0202246068799332157;1.4144653271368541336];
IW1_1 = [-0.41051412885336979741 0.022278159227244104246 -0.30243953766883674428 0.47713682834871906646 1.5532366091836542488 1.2285572601352021671 1.1767718753394320608 -0.264366313860813551 -1.2784619478340601972 -0.28581861950859344113;0.042832371649682163262 0.36712015177560675117 -0.96840221056363473551 -0.67611383712001971169 0.93307802604496536958 -0.45493286922582298892 -0.90200472306603440842 0.44624512200842014753 0.093008387835035871705 1.0054956050993621997;0.78190310103807192377 0.78054298919005571378 0.34479409897610452385 0.22450636351403507884 1.2834037330149494771 -0.25783952157958356377 -0.28524315119797166718 0.12528767002343488279 0.32736526633467399883 -0.5114665110095779621;-0.82835361078364688758 -0.07992668405814433441 0.25403126944396692277 -0.3571676693463770591 0.0099575069619330935922 0.32444771179242271053 0.1496776937721259193 -0.038306073972069323852 0.17978198292258279478 -0.58984607545052569755;0.78025638989647538857 1.062263286967145115 -0.42542974288642348979 -1.3987332448614211433 -1.8346997260815109954 -0.75314880127873085058 -0.76016289180271678916 -0.81899196546450692136 -0.720852662373141162 -0.014351599040944212904;0.60509545960062482983 -0.69659961970002404197 -0.12867527388480207162 -1.0643139478776115769 -0.092462891155856957726 1.5455578255474360372 -0.16537186687396476792 -0.09337270633226252281 0.092583853572220001227 1.1050409376116379079;0.93987318661335073067 -0.52192558772470976081 0.10554301528774912011 0.066586984702874704722 -0.59657373707839989052 0.77906967252548686709 -0.45885214306072891199 -1.1681396708624394165 -1.0452255957440932388 -1.0989169653128363358;0.65853673254981948126 -0.026657856616465223226 -0.45008223120486118285 1.1736489275209649463 0.1581433943924056007 0.069237824343124393378 0.022903671010941262232 -0.46473730309806138283 0.64760419959590909134 0.1905826495020831457;-1.0030812980428163161 -0.61508874847740080405 -0.40677051691760524044 -0.34742531744796434356 -0.023707827366622552523 -0.081269858509628256638 -0.19198822562051218177 0.30926649015867341275 -0.1361099869484629632 -0.0043552661448871821115;0.79867581788139307974 -0.94434576060576336243 -0.61306572854976559839 -0.51867695796141388698 -0.02447388807469057237 -0.50203597628636909 -0.5714706179945969744 -0.2644535675811659492 0.95834228038976343456 -0.22671057197849064924];

% Layer 2
b2 = -0.64675731366599320538;
LW2_1 = [-0.18122918957518130423 -0.097050283357194802591 0.43185339645044984458 -0.38212519529217930936 -0.23198823358299255903 -0.12206845759118736816 0.29365888814008139773 -0.22218114814708661564 -0.3314193604033578433 0.32483425123965053993];

% Output 1
y1_step1.ymin = -1;
y1_step1.gain = 3.14134283610484e-05;
y1_step1.xoffset = 16578.93;

% ===== SIMULATION ========

% Format Input Arguments
isCellX = iscell(X);
if ~isCellX
    X = {X};
end

% Dimensions
TS = size(X,2); % timesteps
if ~isempty(X)
    Q = size(X{1},1); % samples/series
else
    Q = 0;
end

% Allocate Outputs
Y = cell(1,TS);

% Time loop
for ts=1:TS
    
    % Input 1
    X{1,ts} = X{1,ts}';
    Xp1 = mapminmax_apply(X{1,ts},x1_step1);
    
    % Layer 1
    a1 = tansig_apply(repmat(b1,1,Q) + IW1_1*Xp1);
    
    % Layer 2
    a2 = repmat(b2,1,Q) + LW2_1*a1;
    
    % Output 1
    Y{1,ts} = mapminmax_reverse(a2,y1_step1);
    Y{1,ts} = Y{1,ts}';
end

% Final Delay States
Xf = cell(1,0);
Af = cell(2,0);

% Format Output Arguments
if ~isCellX
    Y = cell2mat(Y);
end
end

% ===== MODULE FUNCTIONS ========

% Map Minimum and Maximum Input Processing Function
function y = mapminmax_apply(x,settings)
y = bsxfun(@minus,x,settings.xoffset);
y = bsxfun(@times,y,settings.gain);
y = bsxfun(@plus,y,settings.ymin);
end

% Sigmoid Symmetric Transfer Function
function a = tansig_apply(n,~)
a = 2 ./ (1 + exp(-2*n)) - 1;
end

% Map Minimum and Maximum Output Reverse-Processing Function
function x = mapminmax_reverse(y,settings)
x = bsxfun(@minus,y,settings.ymin);
x = bsxfun(@rdivide,x,settings.gain);
x = bsxfun(@plus,x,settings.xoffset);
end
