function [Y,Xf,Af] = myNeuralNetworkFunction(X,~,~)
%MYNEURALNETWORKFUNCTION neural network simulation function.
%
% Generated by Neural Network Toolbox function genFunction, 16-Sep-2018 15:25:57.
%
% [Y] = myNeuralNetworkFunction(X,~,~) takes these arguments:
%
%   X = 1xTS cell, 1 inputs over TS timesteps
%   Each X{1,ts} = Qx8 matrix, input #1 at timestep ts.
%
% and returns:
%   Y = 1xTS cell of 1 outputs over TS timesteps.
%   Each Y{1,ts} = Qx1 matrix, output #1 at timestep ts.
%
% where Q is number of samples (or series) and TS is the number of timesteps.

%#ok<*RPMT0>

% ===== NEURAL NETWORK CONSTANTS =====

% Input 1
x1_step1.xoffset = [1315609;51;289;17;18061.2;1;1;1];
x1_step1.gain = [8.63395468451616e-09;0.0338983050847458;0.0006265664160401;0.0476190476190476;9.67237256044628e-05;0.285714285714286;0.00320512820512821;0.0833333333333333];
x1_step1.ymin = -1;

% Layer 1
b1 = [-0.0019764223560458267503;-0.0019606418393124610579;-0.0019606421029784715238;0.0019606418173479032811;-0.32613726455011565752;-0.0019606430223489844031;-0.0019606418104701783291;-0.0019606417986410664203;-0.001960641812766017629;-0.051537644243263881771;0.0019606418693503776564;-0.36514534796618042245;-0.0019606549539708897391;0.21774639726365549453;0.0019606418491567071359;0.0019606421575630609763;-0.0019606419709441730986;-0.0019606418227736364945];
IW1_1 = [-0.051093102715324474616 0.0021342859884513048357 -0.0099216158969002814227 -0.025367573154559477228 0.00089969095607893463662 -0.026082331746496587033 0.033356595640765838995 0.086837781422683113508;-0.051806036285903314664 0.0020981015451486946348 -0.010012831744795475108 -0.025693553226059710065 0.00099330595972249493414 -0.026369896299817240787 0.033714324030901271501 0.0880748224235396171;-0.051806025108229528109 0.0020981021340195677057 -0.01001283033064464395 -0.025693548125452051606 0.00099330446268764468337 -0.026369891817601090467 0.033714318455992729751 0.088074803016157915403;0.051806037217046935206 -0.0020981014960935150115 0.01001283186259955757 0.02569355365096018598 -0.00099330608443125431237 0.026369896673203309378 -0.033714324495313127694 -0.088074824040249716228;0.61966645285863874992 0.20797396468769416278 0.3895289889422247076 0.27976855670895034445 0.020746977646369967746 -0.35595899844654799171 0.34933065195357121402 0.12139164338307228963;-0.051805986132902624719 0.0020981041873420294176 -0.010012825399651254302 -0.02569353034018797069 0.00099329924269785183771 -0.026369876188597426298 0.03371429901688743902 0.08807473534474327681;-0.051806037508607419295 0.0020981014807333370382 -0.010012831899486632561 -0.025693553784005274815 0.0009933061234802652989 -0.026369896790118078911 0.033714324640729785576 0.088074824546475249942;-0.051806038010086125079 0.0020981014543139833543 -0.010012831962931418445 -0.025693554012840603973 0.00099330619064388414943 -0.02636989699120977429 0.033714324890844214744 0.088074825417174457121;-0.051806037411288544114 0.0020981014858603942372 -0.010012831887174196768 -0.025693553739596634855 0.00099330611044620210383 -0.026369896751093576531 0.033714324592191841079 0.088074824377504232209;-0.076797061010482281507 0.71285757576872010866 -0.30536270955959210482 -0.3030362836891693501 0.39422115770884846864 -0.45943946226829940338 0.47752119084211391842 0.065243119360152923569;0.051806035012494838776 -0.0020981016122355385274 0.010012831583689282486 0.025693552644976604821 -0.00099330578917375617412 0.026369895789183889212 -0.033714323395783979409 -0.088074820212567378475;-0.52960915778257267039 0.58270381161524686942 0.30717536321810662292 0.10815814049214392267 -0.31356069432058242263 -0.31294568969758956856 -0.064909324053769673624 -0.11906450880689005423;-0.05180548028588013304 0.0020981308359432457485 -0.010012761401473212544 -0.025693299511160522935 0.00099323149531120808256 -0.026369673344352469874 0.033714046722424735603 0.088073857061755786435;-0.17592808487646435789 -0.22095841556564488339 -0.11545590580204767583 -0.15050667751730131827 0.19783819319337919707 -0.37449743907377824881 0.095456306477766775243 0.59506987117872667259;0.051806035868569952352 -0.0020981015671351667395 0.010012831691996263925 0.025693553035621791159 -0.0009933059038286734619 0.026369896132467797456 -0.03371432382275461187 -0.088074821698939029235;0.051806022794204723003 -0.0020981022559287063056 0.010012830037884104181 0.02569354706951375994 -0.00099330415276849357703 0.026369890889683722524 -0.033714317301864089871 -0.088074798998402384353;-0.051806030705590200292 0.0020981018391354093813 -0.010012831038798518032 -0.025693550679645578427 0.00099330521234631684487 -0.026369894062127502421 0.033714321247698721129 0.088074812734648302848;-0.051806036987033544927 0.0020981015082113356474 -0.0100128318334992885 -0.02569355354600021471 0.00099330605362547797973 -0.026369896580968429922 0.033714324380592977648 0.088074823640886132359];

% Layer 2
b2 = 0.030703015068141117916;
LW2_1 = [-0.11570388572174791775 -0.11735570279769136359 -0.11735567688620701654 0.11735570495621569509 0.72550736876177102097 -0.11735558653569952425 -0.11735570563209717088 -0.11735570679459729482 -0.11735570540649756244 0.66718917134674071701 0.11735569984574316382 -0.78365448446974017571 -0.11735441390878946499 -0.71702577573278958312 0.11735570183024962576 0.117355671521957583 -0.11735568986170602512 -0.11735570442301027083];

% Output 1
y1_step1.ymin = -1;
y1_step1.gain = 3.14134283610484e-05;
y1_step1.xoffset = 16578.93;

% ===== SIMULATION ========

% Format Input Arguments
isCellX = iscell(X);
if ~isCellX
    X = {X};
end

% Dimensions
TS = size(X,2); % timesteps
if ~isempty(X)
    Q = size(X{1},1); % samples/series
else
    Q = 0;
end

% Allocate Outputs
Y = cell(1,TS);

% Time loop
for ts=1:TS
    
    % Input 1
    X{1,ts} = X{1,ts}';
    Xp1 = mapminmax_apply(X{1,ts},x1_step1);
    
    % Layer 1
    a1 = tansig_apply(repmat(b1,1,Q) + IW1_1*Xp1);
    
    % Layer 2
    a2 = repmat(b2,1,Q) + LW2_1*a1;
    
    % Output 1
    Y{1,ts} = mapminmax_reverse(a2,y1_step1);
    Y{1,ts} = Y{1,ts}';
end

% Final Delay States
Xf = cell(1,0);
Af = cell(2,0);

% Format Output Arguments
if ~isCellX
    Y = cell2mat(Y);
end
end

% ===== MODULE FUNCTIONS ========

% Map Minimum and Maximum Input Processing Function
function y = mapminmax_apply(x,settings)
y = bsxfun(@minus,x,settings.xoffset);
y = bsxfun(@times,y,settings.gain);
y = bsxfun(@plus,y,settings.ymin);
end

% Sigmoid Symmetric Transfer Function
function a = tansig_apply(n,~)
a = 2 ./ (1 + exp(-2*n)) - 1;
end

% Map Minimum and Maximum Output Reverse-Processing Function
function x = mapminmax_reverse(y,settings)
x = bsxfun(@minus,y,settings.ymin);
x = bsxfun(@rdivide,x,settings.gain);
x = bsxfun(@plus,x,settings.xoffset);
end
