function [Y,Xf,Af] = myNeuralNetworkFunction(X,~,~)
%MYNEURALNETWORKFUNCTION neural network simulation function.
%
% Generated by Neural Network Toolbox function genFunction, 16-Sep-2018 19:40:13.
%
% [Y] = myNeuralNetworkFunction(X,~,~) takes these arguments:
%
%   X = 1xTS cell, 1 inputs over TS timesteps
%   Each X{1,ts} = Qx5 matrix, input #1 at timestep ts.
%
% and returns:
%   Y = 1xTS cell of 1 outputs over TS timesteps.
%   Each Y{1,ts} = Qx1 matrix, output #1 at timestep ts.
%
% where Q is number of samples (or series) and TS is the number of timesteps.

%#ok<*RPMT0>

% ===== NEURAL NETWORK CONSTANTS =====

% Input 1
x1_step1.xoffset = [1315609;6.66363e-10;2601;1.05359e-09;0.007272727];
x1_step1.gain = [8.63395468451616e-09;833619195.249037;0.000210548478787241;524738811.256697;3.26409495403675];
x1_step1.ymin = -1;

% Layer 1
b1 = [-0.00051686524551296264031;0.00068284134174876611693;0.00075939393682606195525;-0.00069528501602308674222;-0.00062477330103732887055;0.00069882292880577077769;0.00076531038069114207863;-0.46972666703259363663;-0.0007491702526905471551;-0.00073413189262871070186];
IW1_1 = [0.2122301956064050199 -0.015698869065450503368 0.064811627728433893192 0.032231483792707772695 -0.089762782899998588837;-0.21352308513607951013 0.015564374311968401376 -0.065278221322824458994 -0.032316289137593379177 0.090167830735772128148;-0.21410905320756590253 0.015501387373478078477 -0.0654910267486307901 -0.03235421825191880929 0.090350416056764873418;0.21361876803751350673 -0.015554175907510610008 0.065312912879911297348 0.032322503798814773701 -0.090197687304575349665;0.21307430267166613258 -0.015611754486501462635 0.065115804563847856645 0.032287027023508822754 -0.090027572324176241558;-0.21364594227579708496 0.015551273579647370907 -0.065322769428663912672 -0.032324267392228829554 0.090206163819994925057;-0.21415407731269753278 0.015496494956435867552 -0.065507413100069092349 -0.03235711981073083332 0.090364419815933516578;0.505283346886302831 -0.58963690712577543351 0.070701208789739941607 -0.024960022126888973398 0.40669361393792896608;0.2140311688456226491 -0.015509833771398227192 0.065462692685971865525 0.032349195377093187265 -0.090326184021478572728;0.21391639200398759879 -0.01552223817389014604 0.065420964887549115652 0.032341782216885439638 -0.090290452412201419041];

% Layer 2
b2 = 0.042244650379131318263;
LW2_1 = [0.2495256934503920776 -0.25104137379182744905 -0.25172818876098101981 0.25115353236087184507 0.2505153011212840064 -0.25118538365591369654 -0.25178095658324317618 0.78048675803706379916 0.25163689945565592687 0.25150237708351680377];

% Output 1
y1_step1.ymin = -1;
y1_step1.gain = 3.14134283610484e-05;
y1_step1.xoffset = 16578.93;

% ===== SIMULATION ========

% Format Input Arguments
isCellX = iscell(X);
if ~isCellX
    X = {X};
end

% Dimensions
TS = size(X,2); % timesteps
if ~isempty(X)
    Q = size(X{1},1); % samples/series
else
    Q = 0;
end

% Allocate Outputs
Y = cell(1,TS);

% Time loop
for ts=1:TS
    
    % Input 1
    X{1,ts} = X{1,ts}';
    Xp1 = mapminmax_apply(X{1,ts},x1_step1);
    
    % Layer 1
    a1 = tansig_apply(repmat(b1,1,Q) + IW1_1*Xp1);
    
    % Layer 2
    a2 = repmat(b2,1,Q) + LW2_1*a1;
    
    % Output 1
    Y{1,ts} = mapminmax_reverse(a2,y1_step1);
    Y{1,ts} = Y{1,ts}';
end

% Final Delay States
Xf = cell(1,0);
Af = cell(2,0);

% Format Output Arguments
if ~isCellX
    Y = cell2mat(Y);
end
end

% ===== MODULE FUNCTIONS ========

% Map Minimum and Maximum Input Processing Function
function y = mapminmax_apply(x,settings)
y = bsxfun(@minus,x,settings.xoffset);
y = bsxfun(@times,y,settings.gain);
y = bsxfun(@plus,y,settings.ymin);
end

% Sigmoid Symmetric Transfer Function
function a = tansig_apply(n,~)
a = 2 ./ (1 + exp(-2*n)) - 1;
end

% Map Minimum and Maximum Output Reverse-Processing Function
function x = mapminmax_reverse(y,settings)
x = bsxfun(@minus,y,settings.ymin);
x = bsxfun(@rdivide,x,settings.gain);
x = bsxfun(@plus,x,settings.xoffset);
end
