function [Y,Xf,Af] = myNeuralNetworkFunction_095(X,~,~)
%MYNEURALNETWORKFUNCTION neural network simulation function.
%
% Generated by Neural Network Toolbox function genFunction, 15-Sep-2018 19:45:00.
%
% [Y] = myNeuralNetworkFunction(X,~,~) takes these arguments:
%
%   X = 1xTS cell, 1 inputs over TS timesteps
%   Each X{1,ts} = Qx10 matrix, input #1 at timestep ts.
%
% and returns:
%   Y = 1xTS cell of 1 outputs over TS timesteps.
%   Each Y{1,ts} = Qx1 matrix, output #1 at timestep ts.
%
% where Q is number of samples (or series) and TS is the number of timesteps.

%#ok<*RPMT0>

% ===== NEURAL NETWORK CONSTANTS =====

% Input 1
x1_step1.xoffset = [1147;51;17;18061.2;15;1;1;1;1;14337];
x1_step1.gain = [0.00014168319637291;0.0338983050847458;0.0476190476190476;9.67237256044628e-05;0.0377358490566038;0.25;1;0.0833333333333333;1;0.000121425535790177];
x1_step1.ymin = -1;

% Layer 1
b1 = [0.019789808861146142988;-0.020408207913620517171;-0.019806948073616575945;-0.019808594833602709978;-0.018668512182776070274;0.020200499193914634583;-0.024072048038549946625;0.37801823808101547852;-0.0098555607475296035103;-0.019643979416172119984];
IW1_1 = [-0.11449477442329945853 -0.040216541566612605541 -0.054721509849972260753 -0.11874397501636400898 -0.14514773551024490184 0.10609678695696343753 -0.05225177276192437964 0.0034615354301202622828 0.044910445767421522389 0.0085598904210044089724;0.11583353083015753004 0.041117768993961842372 0.055266951858831410427 0.12084293696820443131 0.14662767885693184233 -0.1087117287432210061 0.052758975451270784252 -0.0034177917832322770968 -0.044689008099944471653 -0.0081542480660111334168;0.11453184968311801162 0.040240733413864478163 0.054736675911347051904 0.11880101844866503003 0.14518919577062400217 -0.10616787320095684433 0.052265826217017245792 -0.0034602516454166664175 -0.044905158434730307881 -0.008549302952753140214;0.11453541196198867291 0.040243060065304196715 0.054738132910722971103 0.11880650249679521047 0.14519317798053754665 -0.10617470727621548809 0.052267176463270635656 -0.0034601285014327068032 -0.044904647901675920352 -0.0085482837761695750628;0.11206663017338193422 0.038720082715496838277 0.053719746861072247002 0.11513341861862391724 0.14237778818755705834 -0.10159936679307308982 0.051328141432097157404 -0.003553166071415105997 -0.045155063097736765354 -0.0091771452765574655641;-0.11538353305603382681 -0.040808381708655291908 -0.055084096234101556644 -0.12012828790039647986 -0.14613422197993131135 0.10782163757082703637 -0.052588506712413218835 0.0034318740735357964981 0.044770479502038468267 0.0082960080991779806131;0.12401313472229168189 0.048057565677469916976 0.058560781757093768873 0.13566169062489244479 0.15478975457289192996 -0.12697500935741090622 0.055958541564439891192 -0.0033131448921276287871 -0.041961436534117192709 -0.004547662053403888141;-0.10473763596576428359 -0.19435940448509578249 -0.2093121566627555441 -0.061080816570294078904 -0.47016101194074333414 -0.11728199729409616303 0.2931317180666022093 -0.083995075893125450972 -0.24778678698905429179 0.066091390066853078489;0.090448284575886439551 0.029626710001646801296 0.044106188478461823277 0.089335910723944159106 0.11512053539963580662 -0.071067108004431625567 0.042476926706266564249 -0.0044537647409519879466 -0.04124120990257302416 -0.010434293997516238747;0.11417933459871711099 0.040012424247614378214 0.054592326445778750765 0.11826107066475582963 0.14479392729442147614 -0.10549499326710305713 0.052132167284770415672 -0.0034726130233541287889 -0.044953505348123756757 -0.0086485112781669454263];

% Layer 2
b2 = 0.00040718728873007981918;
LW2_1 = [-0.2721519966086863862 0.27600761805433593477 0.27225820540845863116 0.27226841186846123533 0.26526213171263707258 -0.27470684879255780064 0.30062212143132960307 -0.58130610973335672398 0.20783010812810487344 0.27124963447196409616];

% Output 1
y1_step1.ymin = -1;
y1_step1.gain = 3.14134283610484e-05;
y1_step1.xoffset = 16578.93;

% ===== SIMULATION ========

% Format Input Arguments
isCellX = iscell(X);
if ~isCellX
    X = {X};
end

% Dimensions
TS = size(X,2); % timesteps
if ~isempty(X)
    Q = size(X{1},1); % samples/series
else
    Q = 0;
end

% Allocate Outputs
Y = cell(1,TS);

% Time loop
for ts=1:TS
    
    % Input 1
    X{1,ts} = X{1,ts}';
    Xp1 = mapminmax_apply(X{1,ts},x1_step1);
    
    % Layer 1
    a1 = tansig_apply(repmat(b1,1,Q) + IW1_1*Xp1);
    
    % Layer 2
    a2 = repmat(b2,1,Q) + LW2_1*a1;
    
    % Output 1
    Y{1,ts} = mapminmax_reverse(a2,y1_step1);
    Y{1,ts} = Y{1,ts}';
end

% Final Delay States
Xf = cell(1,0);
Af = cell(2,0);

% Format Output Arguments
if ~isCellX
    Y = cell2mat(Y);
end
end

% ===== MODULE FUNCTIONS ========

% Map Minimum and Maximum Input Processing Function
function y = mapminmax_apply(x,settings)
y = bsxfun(@minus,x,settings.xoffset);
y = bsxfun(@times,y,settings.gain);
y = bsxfun(@plus,y,settings.ymin);
end

% Sigmoid Symmetric Transfer Function
function a = tansig_apply(n,~)
a = 2 ./ (1 + exp(-2*n)) - 1;
end

% Map Minimum and Maximum Output Reverse-Processing Function
function x = mapminmax_reverse(y,settings)
x = bsxfun(@minus,y,settings.ymin);
x = bsxfun(@rdivide,x,settings.gain);
x = bsxfun(@plus,x,settings.xoffset);
end
