function [Y,Xf,Af] = myNeuralNetworkFunction(X,~,~)
%MYNEURALNETWORKFUNCTION neural network simulation function.
%
% Generated by Neural Network Toolbox function genFunction, 15-Sep-2018 19:33:09.
%
% [Y] = myNeuralNetworkFunction(X,~,~) takes these arguments:
%
%   X = 1xTS cell, 1 inputs over TS timesteps
%   Each X{1,ts} = Qx10 matrix, input #1 at timestep ts.
%
% and returns:
%   Y = 1xTS cell of 1 outputs over TS timesteps.
%   Each Y{1,ts} = Qx1 matrix, output #1 at timestep ts.
%
% where Q is number of samples (or series) and TS is the number of timesteps.

%#ok<*RPMT0>

% ===== NEURAL NETWORK CONSTANTS =====

% Input 1
x1_step1.xoffset = [1147;51;17;18061.2;15;1;1;1;1;14337];
x1_step1.gain = [0.00014168319637291;0.0338983050847458;0.0476190476190476;9.67237256044628e-05;0.0377358490566038;0.25;1;0.0833333333333333;1;0.000121425535790177];
x1_step1.ymin = -1;

% Layer 1
b1 = [0.019968730038556460615;0.400562694543715625;0.019956018851804348258;0.02003197372872092194;0.020025899012496274632;-0.019861615679135705137;0.019997513511581438417;-0.076157338158012802265;0.019837773048921640562;0.01952213513197807726];
IW1_1 = [-0.10348699802114928736 -0.059328061977368368174 -0.090796724210167406577 -0.030285136801026180109 -0.17037624428766709461 0.042069561463259352863 -0.099538667226578878 -0.066476009274362451995 -0.0683153786110308886 0.11142770168846510837;0.082725487086248980506 -0.15211623237377094875 -0.30016672393456356183 -0.040308793513468728353 -0.34720108908720948016 -0.17613784912110250214 0.18083538834155438169 -0.036026363744376913023 -0.34888572026607500565 0.21816572372803069713;-0.1034681668992969289 -0.05932258007728093141 -0.090780236888666696049 -0.030284081186858279738 -0.17033861652322518365 0.042062263644282026076 -0.09952068143312568782 -0.066465705899233701315 -0.068322907182280373517 0.11140980525515493949;-0.10357652183567719884 -0.059354109492514441071 -0.090879549920595784074 -0.030287165090591337824 -0.17055821395552958619 0.042098440352495582195 -0.099626697550247847457 -0.066523381613011481339 -0.068270515504860393441 0.11151617714571089579;-0.10356799458372230316 -0.059351632808873754088 -0.090871582458948496619 -0.030287027137805691557 -0.17054082442726373192 0.042095796688379365225 -0.099618265511393785938 -0.06651889927017735904 -0.068274956553252774683 0.11150769069774195408;0.10332510929741417494 0.059280820712015111495 0.09065830408406896912 0.030273749460957490032 0.17005511493765340658 -0.042002354762596935678 0.099385977105877321147 0.066386179124211130986 0.068373096178149239677 -0.11127636001893427553;-0.10352907583407364167 -0.059340300688539376894 -0.090834158940943585114 -0.030287089530983305613 -0.17046073955735438488 0.042085080627764712147 -0.099579197937594773893 -0.066498812746029048459 -0.068297324902657843837 0.11146814290178536089;-0.22338422348533851225 0.088781833315523653316 0.1564720670359639465 -0.52275105602295213192 0.051571364271224370834 0.46830526240865977261 0.36535750964096769255 0.25689966624347332358 0.58481841389023092592 -0.57055202437406793425;-0.10328841767018584474 -0.059270073563885798673 -0.090627582352682103939 -0.030270701510417614977 -0.1699828009105142923 0.041986225132126235582 -0.099351756560566592547 -0.066365564825289283246 -0.068384764882476661851 0.11124254724522697479;-0.10278718804823371025 -0.059121751440151047718 -0.09022223482341955314 -0.030218241199872399733 -0.16900552016372588637 0.041745353057749789993 -0.098892982422473532655 -0.066077996273431832686 -0.068511542992417892584 0.11079123953620664822];

% Layer 2
b2 = 0.01540203359913593778;
LW2_1 = [-0.31296956775744855239 -0.6688538983603815602 -0.31291306840788124521 -0.3132399187592789791 -0.31321413843467621474 0.31248508698257615457 -0.31309604326938306196 -0.75503223752500603361 -0.31237551100127675108 -0.31088317946819604698];

% Output 1
y1_step1.ymin = -1;
y1_step1.gain = 3.14134283610484e-05;
y1_step1.xoffset = 16578.93;

% ===== SIMULATION ========

% Format Input Arguments
isCellX = iscell(X);
if ~isCellX
    X = {X};
end

% Dimensions
TS = size(X,2); % timesteps
if ~isempty(X)
    Q = size(X{1},1); % samples/series
else
    Q = 0;
end

% Allocate Outputs
Y = cell(1,TS);

% Time loop
for ts=1:TS
    
    % Input 1
    X{1,ts} = X{1,ts}';
    Xp1 = mapminmax_apply(X{1,ts},x1_step1);
    
    % Layer 1
    a1 = tansig_apply(repmat(b1,1,Q) + IW1_1*Xp1);
    
    % Layer 2
    a2 = repmat(b2,1,Q) + LW2_1*a1;
    
    % Output 1
    Y{1,ts} = mapminmax_reverse(a2,y1_step1);
    Y{1,ts} = Y{1,ts}';
end

% Final Delay States
Xf = cell(1,0);
Af = cell(2,0);

% Format Output Arguments
if ~isCellX
    Y = cell2mat(Y);
end
end

% ===== MODULE FUNCTIONS ========

% Map Minimum and Maximum Input Processing Function
function y = mapminmax_apply(x,settings)
y = bsxfun(@minus,x,settings.xoffset);
y = bsxfun(@times,y,settings.gain);
y = bsxfun(@plus,y,settings.ymin);
end

% Sigmoid Symmetric Transfer Function
function a = tansig_apply(n,~)
a = 2 ./ (1 + exp(-2*n)) - 1;
end

% Map Minimum and Maximum Output Reverse-Processing Function
function x = mapminmax_reverse(y,settings)
x = bsxfun(@minus,y,settings.ymin);
x = bsxfun(@rdivide,x,settings.gain);
x = bsxfun(@plus,x,settings.xoffset);
end
