function [Y,Xf,Af] = myNeuralNetworkFunction(X,~,~)
%MYNEURALNETWORKFUNCTION neural network simulation function.
%
% Generated by Neural Network Toolbox function genFunction, 16-Sep-2018 12:52:48.
%
% [Y] = myNeuralNetworkFunction(X,~,~) takes these arguments:
%
%   X = 1xTS cell, 1 inputs over TS timesteps
%   Each X{1,ts} = Qx56 matrix, input #1 at timestep ts.
%
% and returns:
%   Y = 1xTS cell of 1 outputs over TS timesteps.
%   Each Y{1,ts} = Qx1 matrix, output #1 at timestep ts.
%
% where Q is number of samples (or series) and TS is the number of timesteps.

%#ok<*RPMT0>

% ===== NEURAL NETWORK CONSTANTS =====

% Input 1
x1_step1.xoffset = [-1;1.84264e-17;0.035977044;0.119513154;20.32729935;6.119126836;2.27709e+18;1315609;1147;5.64474e-13;6.83013e-09;0.073731526;0.244930828;11.34485068;3.415140352;17596287801;2601;51;2.37076e-11;8.25262e-08;0.084995808;0.282349963;8.174925683;2.460897843;24137569;289;17;-1;-1;0.0328052;0.108976516;28.28121226;8.513493204;3.4712e+25;326206945.4;18061.2;1;4.096e-09;2.56e-06;0;0;1;1;1;1;1;1;-1;-1;0.033532252;0.111391731;27.61491111;8.31291657;8.6846e+24;205549569;14337];
x1_step1.gain = [1;3461767362650.33;151.310160636162;45.5488989635462;0.267802057408588;0.889619178458645;1.58194085141795e-25;8.63395468451616e-09;0.00014168319637291;35545617948.6603;14185919.3826969;138.752150571614;41.7685593267877;0.901766617163437;2.99560387043883;1.14027444586783e-12;0.000210548478787241;0.0338983050847458;48302770.5763982;168201.876026168;53.5769828781089;16.1282789113592;0.557047139482209;1.85047054412661;4.744238564853e-11;0.0006265664160401;0.0476190476190476;1;1;783.096701087682;235.735581056383;0.908364275475528;3.01752081214279;5.97925557072293e-28;1.70288698978168e-09;9.67237256044628e-05;0.285714285714286;2.000000008192;2.00000512001311;0.21533827902625;0.71533827912473;8.19200003355443e-09;0.00320512820512821;0.0833333333333333;1;1;0.25;1;1;746.249722021978;224.643580495186;0.906156728296848;3.01018749342622;2.3631041925722e-27;2.68967849795496e-09;0.000121425535790177];
x1_step1.ymin = -1;

% Layer 1
b1 = [0.00014340244269918755028;-0.00014327734043860984245;0.00013321500378078187147;3.3234508297747459942e-05;-6.1050695333773882865e-05;8.2417319290007404545e-05;-4.6435801334399964011e-05;-6.3932619895138472887e-05;3.63729099897634571e-05;3.2734198277573784699e-05;0.00011551921645444189783;-3.3978233827051266874e-05;-3.286186336756047766e-05;0.00010540500650882105439;9.886949796932905266e-05;-8.0656167977693761202e-05;-0.00016055757406274355015;0.00012665058369208868319;-0.00017019252379139136332;3.9606117246759962435e-06;0.00016768350072188779485;9.008877895080790398e-05;-9.5049420824491970489e-05;0.00015616241987381984874;-6.5867606369128978453e-05;0.00014744711352752460677;-0.00011059212250768229004;8.6400643754394775009e-05;-8.1186893944663836081e-05;7.3115991306695130849e-05;9.4998673440173622327e-05;-5.3650041906285759937e-06;1.3984956790853611108e-05;8.3154119067614163698e-05;-7.4685271616657721103e-05;-0.00012183752156291655945;9.0324283864947875694e-05;-2.993605705249455717e-06;0.00010132809910379404891;9.7766530338871829395e-05;-4.7941638598740301549e-05;2.5435849729456187307e-05;-6.5088486463814310395e-05;-6.3182276094019763544e-05;0.00016030701752188774439;-0.00011956342712268836696;8.3702545261270683849e-05;-1.6919758363546732696e-05;-0.00011698005387772913641;0.00013045597524112307079;4.8878937721756020578e-05;-5.8276103325391227794e-05;-0.00013500447490929042482;6.9632385725894394707e-05;-0.0001308530913158367304;-0.00016804058610343298227;0.00013799346571958552772;-7.4436797644456998584e-05;-6.8997509190921418702e-05;4.155839279602769606e-05;0.00016000548323207448289;0.00017705681893688212758;-0.0001689636951895913332;3.1634226419875892725e-05;-0.00012337432742738310048;-0.00014163231420516363894;6.1140998701738821786e-05;-9.609357227757410057e-05;8.5705602321733362911e-05;-5.9001655050044500355e-05;-1.346971799062354183e-05;-2.4713809383227710695e-06;6.1435385179389967415e-05;-0.00014980287287744470837;2.0227333760755410175e-05;0.00016348827677603521382;0.00016518101773099663266;-0.00017196962308816681636;-0.00013637738073478958755;8.9975500879163372884e-05;1.030298665114962354e-05;3.052291959480826441e-05;3.5112484497137977932e-05;-0.00010485724420231784786;0.00015881861323541892977;-3.9133663188429011282e-05;-1.396619073266660736e-05;1.5102513122183257896e-05;-0.00011541175970338973865;-0.00014038556614827759662;-2.2485974001670613317e-05;-0.00011312618231968647557;2.3886872469612660546e-05;1.9580496264411101489e-06;-0.00014085018695012067576;0.00011814071663044285754;7.345261757638429272e-05;-5.8490912932150948111e-05;-4.8176135533687484427e-05;-9.2759839453682412782e-05;0.00014385429813848444941;-0.00011837514442654856498;4.3242809431675342335e-05;-0.00014720799035343451596;-3.371167330676828666e-05;0.00013345393627984801521;0.00010686287396033360825;-0.00014479873512643812151;6.9702687202771729247e-06;0.00012349221323270867393;0.00017626441409292409931;-0.00015310909396872498666];
IW1_1 = [0 -0.0024528522601978829283 0.0054285216036215238125 0.0054285163110976272435 -0.0075209628581514890652 -0.0075209629836227222949 -0.022611108000932213929 -0.023727712774652517241 -0.0171617587802443336 -0.0053408502050431225228 -0.00019676131151248962706 0.0054119765720432007686 0.0054119738135290414854 -0.0055423612299569146103 -0.0055423613983342050193 0.0016407491421954346206 -0.0041425447165162323712 -0.0051607784226083827303 -0.0014199821170517330782 -0.0021110392442272949559 -0.00049027730931549835369 -0.00049027837753527682852 -0.00089789688709947658267 -0.00089789675891047853774 -0.016401762101951405937 -0.0076732926004455352664 -0.0041495579470734915775 0 0 0.0074623017706498540047 0.0074623125750957310445 -0.0076638924704570104279 -0.007663892541143644925 -0.0036398443768433453097 -0.0082309820906104891325 -0.0082806718529331059531 -0.0042594518544094763651 -0.0042518026026838766016 -0.0035711551913445672632 0.0042733706496372852318 0.0042733706420064040618 -0.015127681955891307541 -0.0049039631946625108355 0.0016826112501330246253 0.00052638876998240154408 -0.0017311900065541895553 0.0081560960993870782604 0 0 -0.0014042254820060555594 -0.0014042178654625320743 0.0011559381004517482825 0.0011559381790856050869 0.006868274422000141162 0.00054450872592243053632 0.0004299457124860464434;0 0.0030185481135740089426 -0.0067873545604184137153 -0.0067873479636300490178 0.009390690223534940706 0.009390690379787300715 0.028160032355886707028 0.029553432101148038869 0.021385089855099383149 0.0066307088746061027332 0.00022999549978583205996 -0.0067374440660895717342 -0.0067374406313772750368 0.0068970705988538015541 0.0068970708085326357453 -0.0020741203122254170052 0.0051424979161604870981 0.006416015978184423825 0.0017395320299219364703 0.0026057966653515655768 0.00061910014621988822617 0.00061910147714707276876 0.0011015641341155521862 0.0011015639744781382213 0.020373107213298904256 0.0095161598780649642171 0.0051380478816603842099 0 0 -0.009281821418480239172 -0.0092818349077728613122 0.0095319941131914633775 0.0095319942015818937692 0.004508597966718667395 0.010231126422156084504 0.010296120112292264648 0.0052234938749988616205 0.005377716835207550089 0.0045279921393385378844 -0.0053688781064694431761 -0.0053688780969662801626 0.018835038432550077481 0.0060839620031644739417 -0.0021292181673630348852 -0.00059775840859668740064 0.0021896183185864778915 -0.010127629455405341014 0 0 0.001679768745010247824 0.0016797592665296001094 -0.001370883810303497952 -0.0013708839081991725916 -0.0085228397370381778209 -0.00061797592360013538226 -0.00046995853998819291574;0 -0.0013151637506906275511 0.0027325918045175956982 0.0027325891053620620687 -0.003807388524042566811 -0.0038073885882222336004 -0.011575786777959784501 -0.012135561111577472526 -0.0087604194249783946813 -0.0027673657945258747087 -0.00012653036751409554145 0.0027725701243821285376 0.0027725687118060975654 -0.0028440061512373920188 -0.0028440062373758017919 0.00078655826519472449732 -0.0021474043658065255884 -0.0026588891187881900056 -0.00077417877043255850251 -0.0011191019397530452967 -0.00024134947170230468087 -0.00024135001760852470331 -0.00048148906093927905164 -0.00048148899535234099007 -0.0084722688586606042377 -0.0039848432585760339142 -0.0021656317342169423452 0 0 0.003842930278070477712 0.0038429357562395601369 -0.0039476469415276249295 -0.0039476469771099137809 -0.0019112774528231360471 -0.004250652025985231057 -0.0042703912993464461859 -0.0023020211017435550024 -0.0020546501674892289624 -0.0017095574745269227507 0.0021103194221308032262 0.0021103194182290913733 -0.0077517913531167910793 -0.0025519530988936302979 0.00080145124757244985345 0.00036018694983414804422 -0.00082049403919882599699 0.004227930210748139829 0 0 -0.0008237527083892708232 -0.00082374880603828105723 0.00069635387058870348246 0.00069635391093263621261 0.003565140479812055601 0.00037205998292455386622 0.00032076894225728719897;0 -0.00029091609184329686108 0.00059259810823250114783 0.00059259752037595255208 -0.00082720845849867637514 -0.00082720847248892771537 -0.0025242884223985796212 -0.0026453844822748135909 -0.0019084494981652310678 -0.0006057529118220927487 -2.9408997179695299718e-05 0.00060467950372935705666 0.00060467919568793146445 -0.00062058481797254319394 -0.00062058483675036255414 0.0001677719487939129193 -0.00047009738684938482366 -0.00058093842580294870019 -0.0001720991462525879416 -0.00024671177153062811204 -5.2079453073276298276e-05 -5.2079572049901548796e-05 -0.00010636096579412493619 -0.00010636095149557259025 -0.0018524487956552780198 -0.00087264215585821833764 -0.00047491589239910785968 0 0 0.00083961092420022694766 0.00083961211517892054331 -0.00086255186790900814642 -0.00086255187562625078995 -0.00042022785595936188851 -0.00092952664669778068459 -0.00093342350078022074192 -0.00051007945952077199912 -0.00043993003005280860093 -0.00036490757760892963404 0.00045483652119121943495 0.00045483652034083494773 -0.0016909251190247872286 -0.00055943740373947900037 0.00017052224467361884051 8.472508614069594829e-05 -0.0001742096354356270345 0.0009256284836556975858 0 0 -0.00018666818052849760978 -0.00018666732951676679852 0.00015887066298331142702 0.00015887067178775143286 0.00078073249997655095635 8.7420867466477623756e-05 7.6719935319250091919e-05;0 0.00054245075678393801875 -0.0011078791191978603313 -0.0011078780208134801372 0.0015461085231504754448 0.0015461085492876290842 0.0047157455348462917408 0.0049422165510825894277 0.0035657429216070304911 0.0011310688874115874033 5.4488212370032757426e-05 -0.001129614875160889426 -0.0011296142996958611487 0.0011592472340677529956 0.0011592472691490478525 -0.00031435051023405988831 0.00087776292264991288145 0.0010850031246581516055 0.0003206968397683799773 0.00046023249084486522178 9.7420877020314700892e-05 9.7421099302476385669e-05 0.0001983697519763298622 0.00019836972526358852254 0.0034594442769057894178 0.00162932770914049228 0.00088656595150428992979 0 0 -0.0015681214680512717968 -0.001568123693864896355 0.0016109522833803705151 0.0016109522978076970361 0.00078419144289820373519 0.0017358473582987071077 0.0017432287240918100443 0.00095092227305216506673 0.00082384471958575156234 0.00068363531103982956311 -0.00085102573381067275326 -0.00085102573222191964415 0.0031587656603688312427 0.0010443804168301362972 -0.00031961489746036120078 -0.00015675594513494509226 0.00032662322001851816803 -0.001728301327561640368 0 0 0.00034699528086988204716 0.00034699369105902145216 -0.00029506945511709642459 -0.00029506947156334578913 -0.0014577125920575376584 -0.0001617706949799256231 -0.00014166096841600336279;0 -0.00075732776534599753702 0.0015556155811937857989 0.0015556140408288139394 -0.0021697867986395142671 -0.0021697868352847471222 -0.0066109317066769214197 -0.0069291661885772974985 -0.0050002124462123730131 -0.0015838967162425058449 -7.5006395813833159187e-05 0.0015835382631590555307 0.0015835374564286755494 -0.0016248313448681799952 -0.0016248313940528239831 0.00044352186223723614328 -0.0012291479684648238396 -0.001520202983946529517 -0.00044710250400559003276 -0.00064316989851672160504 -0.00013697448701749021286 -0.00013697479868149834499 -0.00027707789392689065756 -0.00027707785647584839018 -0.004846043744279646126 -0.002281372185778964088 -0.0012408715396707526921 0 0 0.002197112701327726559 0.0021971158243897993996 -0.002257076322388719674 -0.0022570763426459413553 -0.0010967281385075489022 -0.0024314815083962869682 -0.0024421391666423859432 -0.0013270026221106790299 -0.0011610389977616882452 -0.00096430829574750632962 0.0011970886729428303809 0.0011970886707152379215 -0.0044278247142080862445 -0.0014618673228911371626 0.00045128435016358506944 0.00021509024974204255963 -0.00046147506491837192964 0.0024200992833106117243 0 0 -0.00048114903214211817437 -0.00048114680342815576873 0.00040836717669950363657 0.00040836719974997147528 0.0020410581165410872188 0.0002220481201113417972 0.00019349290394596655156;0 -0.0035109734195609811416 0.0085759980226445178125 0.0085759898165086532323 -0.011784513793539050375 -0.011784513987075587865 -0.034872409145374934358 -0.036625353291998917482 -0.026564616272132125091 -0.0080818972498376707297 -0.00018861456308536173792 0.0083298929417413361542 0.0083298886923518257464 -0.0085099439556795709177 -0.0085099442153809302936 0.0027667804048993097608 -0.0062639450574400630523 -0.0078764685722891129849 -0.0019735566987437737872 -0.0030814449546322565145 -0.00081675551595811581376 -0.00081675716787427826704 -0.0012642000664795502093 -0.0012641998687690687592 -0.024909624026544899961 -0.011542396560681001533 -0.0061830711957412045482 0 0 0.011414336321383314679 0.011414353236379267201 -0.011718415063124111228 -0.011718415174882711866 -0.0054157464705631248522 -0.012537370564461592856 -0.012638564831710184799 -0.0059624158194447147638 -0.0071607600582346353849 -0.0060953659065448272114 0.0069415899503536011156 0.0069415899385789209264 -0.023299451445833320451 -0.0073864917191659726706 0.0028519930100411685671 0.00038148807000457996344 -0.0029491055496152556933 0.012341194446528529205 0 0 -0.0016520412190051680934 -0.0016520295130044548425 0.0012711825903635165774 0.0012711827113492575343 0.010357845534017815284 0.00038853900665016601491 0.00017362990058579938989;0 0.0030437128445130758568 -0.0070994601609995176827 -0.0070994533097955073164 0.0097921422488881273288 0.0097921424108808417103 0.029183687264190624061 0.030642456518228826379 0.022196949308130077549 0.0068243301266331388502 0.00020193456634986139877 -0.0069788082410128324945 -0.0069788046823295825025 0.0071375777962057610285 0.0071375780135777980653 -0.002225221188295661498 0.0052909925568506771185 0.0066245729546251363312 0.0017356586388335654234 0.0026462762952902847691 0.00065761084041109345993 0.00065761222113632303039 0.0011077921559560434568 0.0011077919904726404345 0.021002084304019095345 0.0097776198112367075643 0.0052625628263745158342 0 0 -0.0095871767361858425266 -0.0095871907931327944585 0.0098442871560187293623 0.0098442872484910647068 0.0046054371358576562737 0.010550894893177571732 0.010626271331580932483 0.0052329462120500411931 0.0057524179163824960478 0.0048669122461477871966 -0.0056742137119768793624 -0.0056742137021226057153 0.019510950410740041799 0.006248056662002940409 -0.0022901435290010800465 -0.00048833980762950956241 0.0023633697532330416244 -0.010419790310228039393 0 0 0.001586698068826140201 0.0015866882523555194545 -0.0012670355397896672974 -0.0012670356411340674002 -0.0087605703428343690425 -0.00050350888756296198739 -0.00033922841200084550726;0 0.003380370088017978919 -0.0082288818260952967254 -0.0082288739474991618589 0.011310574529148367806 0.01131057471501029088 0.033484000460322474457 0.03516916363214408342 0.025506368259255122327 0.0077658622795051136106 0.00018455397831670133815 -0.0079998182558478642817 -0.0079998141750706498743 0.0081733370141079259019 0.0081733372635080132895 -0.0026500274610640069638 0.0060189975910597348988 0.0075663058830437853949 0.0019023981886398513754 0.0029646364278970533876 0.00078059879297283721062 0.00078060037899747229499 0.0012200082651842923502 0.0012200080753212258922 0.023935761275756511218 0.011096259542689744515 0.0059470944560402992651 0 0 -0.010961358450668539852 -0.010961374683262064406 0.011253541842086267621 0.011253541949313874623 0.0052034273393484270151 0.012041404466878846691 0.012137961294870155265 0.0057502256415879722876 0.0068506979791527651547 0.0058282246644543187278 -0.0066542233853912240507 -0.0066542233740832391203 0.022373618874377602939 0.0070971065964856227745 -0.0027320392608825242592 -0.00038228054282919330352 0.0028267018149640025723 -0.011856602414484841354 0 0 0.0016067204098616212713 0.001606709164918040814 -0.0012408374320353051604 -0.0012408375482023568329 -0.0099538008369334674691 -0.00039008912439061817906 -0.00018562294258545235042;0 -0.00028782296730646135356 0.00058678543738462541225 0.00058678485540394941314 -0.00081903052805465154269 -0.00081903054190456429581 -0.0024989517122271393684 -0.0026188667742112511742 -0.0018893682314037811131 -0.00059957494316457971006 -2.9038410492313929926e-05 0.00059860630577739310561 0.00059860600083086413972 -0.00061433886590006266983 -0.00061433888448954852325 0.00016623421642453475497 -0.00046530643081886394804 -0.00057506198583981568088 -0.00017024172574496188753 -0.00024412865344490225039 -5.1575805004108796323e-05 -5.1575922788352980184e-05 -0.00010524199517784139707 -0.00010524198102276315092 -0.0018336569484360451098 -0.00086373828461157970901 -0.00047004545411193418948 0 0 0.00083111954264866272184 0.00083112072180878968433 -0.00085382586353924510691 -0.00085382587118064639901 -0.00041587436222833385835 -0.00092009203997323149755 -0.00092396606310736115707 -0.00050463955821000456431 -0.00043584034650984875611 -0.0003615628211765554165 0.00045048865826977541353 0.00045048865742792050743 -0.001673924958144444022 -0.0005537030206464340059 0.0001689803888764474806 8.3626516470212099098e-05 -0.00017264945030614852308 0.00091618489997069866779 0 0 -0.00018451155131253660726 -0.00018451070885248672514 0.0001569942190097612625 0.00015699422772548260376 0.00077276087614143191412 8.6293773336692245531e-05 7.5679994886353765772e-05;0 -0.0010899522111874318433 0.0022485504772194794126 0.0022485482527792983141 -0.0031350355604890553333 -0.0031350356133981035697 -0.0095441822710005397301 -0.010004421606256058697 -0.0072203639994803539906 -0.0022847869365564652151 -0.00010678807298996432769 0.0022860857100522663163 0.0022860845453784527613 -0.0023454292862742252487 -0.0023454293572870471736 0.00064342178579478875346 -0.0017730071421149116908 -0.0021937799475444733077 -0.0006427629693416942163 -0.00092632717672915996197 -0.00019821688592783253324 -0.00019821733593351948972 -0.00039887309152502003996 -0.00039887303745380606234 -0.0069921176009062196988 -0.0032905430656927281072 -0.0017892195101638073453 0 0 0.0031706459495319375998 0.0031706504613114613704 -0.0032571279667598517123 -0.0032571279960400714541 -0.0015804967202575819028 -0.0035081731445365613858 -0.0035238964649685522619 -0.0019090716883280751254 -0.001682930968856195808 -0.0013987181286865448936 0.0017326622553609756852 0.0017326622521446248884 -0.0063920176532323768823 -0.0021080608633178114786 0.00065503269178107269202 0.00030540136362820112991 -0.00067011755162758716332 0.0034908777913150975183 0 0 -0.00068879829164838275897 -0.00068879507408882651234 0.0005837359647619655683 0.00058373599803442240662 0.002943944753645807641 0.00031535199001780250296 0.00027372605039822998354;0 0.00029772297183206641999 -0.00060657553636903180274 -0.00060657493467189871252 0.00084670490517033808724 0.000846704919489866723 0.002583695709205594427 0.0027076497933106592579 0.0019533806411905943294 0.00061998652096078698398 3.0083827842122814539e-05 -0.00061890933643534860788 -0.00061890902114499911531 0.00063518595137332953347 0.00063518597059310873045 -0.00017175413843765758703 0.00048114408805040016857 0.00059459994807628242883 0.00017611939766764550248 0.00025249334459970273255 5.3309551705516355457e-05 5.3309673482613333865e-05 0.00010885220566025802322 0.00010885219102518528783 0.0018959992471686115244 0.00089314576476349550639 0.00048606880079269748846 0 0 -0.00085935580338148233933 -0.00085935702242046353543 0.00088283564503780767238 0.00088283565293704731151 0.00043008628840758767646 0.00095137825776431359393 0.00095537057556506564237 0.0005220100890431046475 0.00045035837195774101578 0.00037356842475131507835 -0.00046559071584607132285 -0.00046559071497567148775 0.0017307135590822549272 0.00057257592822697322976 -0.00017457446817089345022 -8.6661948233643015999e-05 0.00017835295891860806811 -0.00094737746183078390839 0 0 0.00019099623723586105456 0.00019099536619816796378 -0.00016254477897823904446 -0.0001625447879898048707 -0.00079907546137934954995 -8.9420774897472205781e-05 -7.8463375616326098798e-05;0 -0.0033322671095168329702 0.0081017282048241930775 0.0081017204463088663552 -0.011136895388866484974 -0.011136895571913218994 -0.032974969558220580679 -0.034635167196576235882 -0.025118339971855259407 -0.0076498476360096594184 -0.00018299428225383916028 0.0078787410821825019924 0.0078787370632468003984 -0.0080498514197219310506 -0.0080498516653435200907 0.0026073499537994774579 -0.0059290797009089223416 -0.0074524930689504912881 -0.0018761309431211525139 -0.0029216718618767078403 -0.00076746290895158880609 -0.00076746447082058784871 -0.0012036166443687521671 -0.0012036164573839306605 -0.023578190487051873397 -0.010932299950845087919 -0.0058602758436994842675 0 0 0.010795289457508317268 0.010795305440135943148 -0.011083106944769669303 -0.011083107050337772173 -0.0051255798378961828915 -0.011859540659708369542 -0.011954407616813671547 -0.0056717193379409022377 -0.0067377035449127766278 -0.0057309548901631687801 0.0065490998325506222591 0.0065490998214138293823 -0.022034120320057793557 -0.0069909284971500420397 0.0026881570035367039623 0.00038216119772307641234 -0.0027818584774527595205 0.011678795615113850975 0 0 -0.0015895482116174708149 -0.0015895371359084240794 0.0012291627854400550158 0.0012291628998407275446 0.0098054545631345736006 0.00039021136357250598564 0.0001895162930749899556;0 -0.00098801626954670286433 0.0020361002642558857258 0.0020360982495309003573 -0.0028391073474509369474 -0.0028391073953741609304 -0.0086449681069356975466 -0.0090616707711711416695 -0.0065397448736598641841 -0.0020699413736952041766 -9.7058975670062474063e-05 0.0020707156723329413726 0.0020707146173896862247 -0.0021245283012958741942 -0.002124528365617077072 0.00058211116088416618893 -0.0016062978198476875885 -0.0019872992337265612053 -0.00058280883826766338024 -0.00083954477045839251675 -0.00017943464211824785908 -0.00017943504971343072476 -0.00036155112347005145205 -0.00036155107449390783613 -0.0063342690172371787088 -0.0029812098940813361661 -0.0016211461542391240355 0 0 0.0028722119468406587771 0.0028722160328643023437 -0.0029505653274318208515 -0.0029505653539456072436 -0.001432216783003395456 -0.0031781224558199701151 -0.0031922899308860388894 -0.0017307076749354770306 -0.0015228637270367072643 -0.0012654713570855440768 0.001568433197654049531 0.0015684331947408134723 -0.0057898809562589624925 -0.0019099870447402225206 0.00059253921141547301853 0.00027776948324814286669 -0.00060612534741024391184 0.0031626477452713947121 0 0 -0.00062520505293754138291 -0.00062520213851227916975 0.00053003836295743931434 0.00053003839309628169099 0.0026671848962315381631 0.00028680465783011512872 0.00024919044935821919092;0 -0.0029722055486121356539 0.0068167428896776837213 0.0068167362899972635051 -0.0094154694579401381621 -0.0094154696141160194173 -0.028139242986855831502 -0.029540038192841535508 -0.021387939348735254125 -0.0066011917722310639936 -0.0002107191671434615872 0.0067308685879313642775 0.00673086515611916094 -0.006886887412671767808 -0.0068868876222421201994 0.0021123801543145455904 -0.0051187234176451879009 -0.0063985768802154356985 -0.0017032607240740509948 -0.0025755572744591459684 -0.00062653429675883635149 -0.00062653562744637036376 -0.0010836983053681989528 -0.0010836981458205660351 -0.020301131838941725155 -0.0094660531787787577374 -0.0051025801324598007297 0 0 0.0092579162333382911121 0.0092579297528116218791 -0.0095067748432895813476 -0.0095067749320698162474 -0.0044695347064491680947 -0.010195941692591876243 -0.010265126904400454985 -0.0051268543133113344754 -0.0054659021146326010679 -0.004614253535303413159 0.0054224952138443721639 0.0054224952043447072203 -0.018816636623296092989 -0.0060493697884390768005 0.0021717376692107028847 0.00052933223054453266282 -0.0022380815776958593033 0.010080273029826015627 0 0 -0.0015990347485993696049 -0.0015990252796625832512 0.0012905870061130752646 0.0012905871038759934681 0.0084791661784672164859 0.00054668859602035983769 0.00039324749225887190018;0 0.0033150700844597562854 -0.007699303047283375355 -0.0076992956107541851707 0.010623320332459010307 0.010623320508304726767 0.031688360480570124111 0.033266428323870812778 0.024094265800754063878 0.0074150852233442103925 0.00022425658390184857304 -0.0075768282706798733422 -0.0075768244069665761226 0.0077501305976772913789 0.0077501308336409705305 -0.0024051822142411856224 0.0057494330832000015499 0.0071952482173603480448 0.0018925108553996844874 0.0028798803680867885064 0.00071417989003921594684 0.0007141813890463015067 0.0012042312976640171841 0.0012042311180164748993 0.022811195715369880777 0.010622139168372011706 0.005717877228182979138 0 0 -0.010416097051982929275 -0.010416112306535692603 0.010695565713331547236 0.010695565813619642773 0.0050134825108694661827 0.011465550037572077094 0.011546090216409772219 0.0056982028429030575495 0.0062311011068197259821 0.0052702328838701842026 -0.0061471887205275157345 -0.0061471887098313851214 0.021185264411989625233 0.0067925808259197591188 -0.002473910048691619918 -0.00054405039381391303611 0.0025479940667470042312 -0.011325488482571468771 0 0 0.0017374749272183081291 0.0017374642724963204089 -0.0013904845409147804057 -0.0013904846509846730592 -0.0095207229561194046952 -0.00056104115269678465731 -0.00038317302689039670072;0 0.0017254068045845271165 -0.0036297755488549792759 -0.0036297719729253283619 0.0050516902926591601003 0.0050516903776379167706 0.015324140315555257255 0.016068570539431455135 0.011604088164781404049 0.0036547904570346572903 0.00016067249483834735 -0.0036699601618197207065 -0.0036699582918911723313 0.0037632918653112256563 0.0037632919793615928969 -0.0010553781140957719381 0.0028358055035040677025 0.003515521033494921864 0.0010124413305924579148 0.0014713635167447631363 0.0003218121949776121685 0.00032181291790865353348 0.00063194588402376973644 0.00063194579718684092129 0.011196390533837493816 0.0052607603644675591734 0.0028564054909567511767 0 0 -0.0050813254319232153272 -0.0050813326978395734895 0.0052195517122898826834 0.0052195517595532998217 0.0025173797806575691147 0.0056173062067638723782 0.0056449563081877093124 0.0030161882782871341641 0.0027514227633748220177 0.0022937061228496726656 -0.0028139945381573622067 -0.0028139945329907476747 0.01025994958384481015 0.0033672725792800845511 -0.0010769100576400129216 -0.00045318024608674459079 0.0011036751793652664882 -0.0055832047063646460597 0 0 0.0010633873097202625139 0.0010633821442415378536 -0.00089480418273735640861 -0.00089480423612079492031 -0.0047069158008868350329 -0.00046837394471383408077 -0.00039858781426822229065;0 -0.0028925235755502313149 0.0065372206935766430033 0.0065372143463838074465 -0.0090406557146777526135 -0.0090406558649877896 -0.027085487293265916864 -0.028428822607879440654 -0.020574545535860511852 -0.0063717896521358055248 -0.00021636555694815428198 0.0064803022006225197496 0.006480298896940184239 -0.006632953966290227113 -0.0066329541679931982787 0.0020052211564138672749 -0.0049414341090986638877 -0.0061682837303096271081 -0.0016645916042946360194 -0.0024994002937892469823 -0.00059686776168348229434 -0.00059686904201750956914 -0.0010560540610140740653 -0.0010560539074531240852 -0.019583455309809115474 -0.0091436995156744960839 -0.0049352067665468964119 0 0 0.008922925991670181689 0.0089229389759481036321 -0.0091632665882802957769 -0.0091632666734133925296 -0.0043266185704918854599 -0.0098332514624818612853 -0.0098968943255439718182 -0.0050028334577117338985 -0.0051934290687459068112 -0.0043754929262750617835 0.0051783077254759423899 0.00517830771633373977 -0.018115478908304387395 -0.0058440393452133792412 0.0020594780110261626249 0.00055876013664143584728 -0.0021200566664811306382 0.0097308214212507397611 0 0 -0.0015971799299424975765 -0.0015971708125166207953 0.0013000941040349973162 0.0013000941981764423897 0.0081885831194664915333 0.00057759332909299888892 0.0004340620376374375246;0 0.0020126621070438652228 -0.0042880823713288196072 -0.0042880781580553351678 0.0059610159402027559916 0.0059610160402681121664 0.018041393354700140106 0.018921659117901896974 0.013669835669857027458 0.0042924470304489805925 0.00018103090936775459354 -0.0043201544280444328927 -0.0043201522266374196152 0.0044285610798708982191 0.0044285612141650851012 -0.001259337295529283033 0.0033302976257508897645 0.0041336311938587793138 0.0011771083331322050418 0.001720183451283386223 0.00038180857981612466561 0.00038180943124020911335 0.00073726592576976658806 0.00073726582352197345648 0.013158217387276047866 0.0061760064117632939781 0.0033500804263483035215 0 0 -0.0059752315870400538392 -0.0059752401579967083164 0.0061374922995894518052 0.0061374923554238427353 0.0029486536862036055208 0.0066017785613710598669 0.0066361300778488866922 0.0035131566388078112537 0.0032774339539732746766 0.0027375013303358626537 -0.0033373145420596377064 -0.0033373145359752659847 0.012076918769086675276 0.0039512672171903538698 -0.0012868003218026880657 -0.00050510056715293439721 0.0013200726014416120507 -0.006556773206056056881 0 0 0.0012191791051888703403 0.0012191730246303858834 -0.0010207918382889552382 -0.0010207919011102082121 -0.0055262646484333776548 -0.00052226282474693058906 -0.00043780484540217656569;0 0.0032984256367012900098 -0.0079282413067936294976 -0.0079282336984788613632 0.010908427026855687866 0.010908427206463395046 0.032356810337327575333 0.033982218352815250773 0.024636936600968249028 0.0075227370537358038277 0.00019175554208992697967 -0.0077326795279067019745 -0.0077326755838020132944 0.0079028183340674861695 0.0079028185750743204507 -0.0025332754417250200399 0.0058311234666263951978 0.0073214600072838307773 0.0018637140311346207452 0.002885204640777963396 0.00074669037693096749868 0.00074669190903481699479 0.0011937168389345061137 0.0011937166554598682873 0.023176226604421663186 0.010757859944261472657 0.0057731048985551550179 0 0 -0.010603225090208863793 -0.010603240746505385173 0.010886375110315545112 0.010886375213611711871 0.0050510754878672573659 0.011654231507417395566 0.011744669734711278911 0.0056297401826385339019 0.0065483102352757232775 0.0055621119491362572274 -0.0063893706328586111209 -0.0063893706219316330486 0.021623860147169673973 0.0068783830497959434769 -0.0026105881450972845056 -0.00042028572734889395584 0.0026986970819769650481 -0.0114857122135910341 0 0 0.0016139689776326494441 0.0016139581058729997928 -0.0012601443548177894503 -0.0012601444671043089425 -0.0096467054347066909931 -0.00043073898686217385653 -0.00023775776192997381949;0 -0.0021480605300380566612 0.0046206818548928775894 0.0046206773238420721997 -0.0064178369200750878462 -0.0064178370276392346719 -0.019390824848742993503 -0.020339971201586048294 -0.014698817325083435303 -0.0046050723258299879753 -0.00018799646990654971402 0.004642807171237891585 0.0046428048052611949059 -0.0047581283878734229736 -0.0047581285322284084041 0.0013671456800201217587 -0.003572611952327758595 -0.004438530419678276065 -0.0012531234722384140389 -0.0018390753566483464005 -0.00041281061881570039595 -0.00041281153417003542275 -0.0007868718650427625411 -0.00078687175513704498472 -0.014123233529984006995 -0.0066235837828931493423 -0.0035901653574011813293 0 0 0.0064163951263485055274 0.0064164043519194611381 -0.006590407092862601672 -0.0065904071530275215932 -0.0031569985921943376737 -0.0070861879814004997968 -0.0071245616406215173805 -0.0037450479280576520411 -0.003553640412735407754 -0.0029724660657034110249 0.0036066670865800912193 0.0036066670800393610223 -0.012978400168106698012 -0.0042362587559480885391 0.0013983388886081200841 0.0005197847066125106056 -0.0014355785966366104139 0.0070338463074080545892 0 0 -0.0012836825001402709604 -0.0012836759655399552441 0.001070529561125445556 0.0010705296286231673775 0.0059271552404308635101 0.00053757856844350541004 0.00044493157544439447277;0 -0.00083701941551183201701 0.0017224536524377560397 0.0017224519475432602776 -0.002402084387231897232 -0.0024020844277879774276 -0.007316204497524377362 -0.007668653167735777626 -0.005534161418506437953 -0.0017522614904706534239 -8.2521889697742648343e-05 0.0017524556070163063454 0.001752454714222503266 -0.0017980662114903936313 -0.0017980662659238767428 0.00049184366542142222804 -0.0013597897826150406181 -0.0016820823465291501013 -0.00049392341637373687446 -0.0007110693676216968016 -0.00015173328825521373081 -0.00015173363318655009972 -0.00030627407346469292214 -0.00030627403201721878009 -0.0053617189905933943309 -0.0025237736176502399699 -0.0013725408937536617924 0 0 0.0024310781030608208733 0.0024310815602712494005 -0.0024974104955921851666 -0.0024974105180217728676 -0.0012128050333172449727 -0.0026901805042847067896 -0.0027020845504096627221 -0.0014664108902195281074 -0.0012870687727847608152 -0.0010692883534678884749 0.0013262294724695207048 0.0013262294700041592395 -0.0049000597490609512988 -0.0016170349990160606812 0.00050056721354314285145 0.00023638442264071923469 -0.0005119728970846313754 0.0026773022281104622705 0 0 -0.00053060020789989835541 -0.00053059774142605981798 0.00045005789737831859015 0.00045005792288605909546 0.0022579233537401259546 0.00024405612574033869622 0.00021232577585602918678;0 0.0028967765730391822898 -0.0066475463900582017207 -0.0066475399549717232792 0.0091813211612363065245 0.0091813213135174404078 0.027435870878792924937 0.028802656301776093095 0.020854487332181186748 0.0064356724864141545348 0.00020484318348556942047 -0.0065628380980552753626 -0.0065628347519409895375 0.0067148469664839605803 0.0067148471708276544559 -0.0020609688979022411023 0.0049903114877110103451 0.0062384679623021218123 0.001659816242994663826 0.0025104522478303949173 0.000610676705020935396 0.00061067800247406578938 0.0010566955589358987232 0.0010566954033693425584 0.019793526824104162171 0.0092292561757811794609 0.0049749609302245775475 0 0 -0.0090256438123180356137 -0.0090256569947960371691 0.009268246399178538264 0.0092682464857543767761 0.0043559943331770668504 0.0099398312452651481352 0.010007462545468855802 0.0049973741661328424657 0.0053303766015904349707 0.0044999418360049019475 -0.0052885663174445504339 -0.0052885663081816448872 0.018346405331134997552 0.0058971114470355249365 -0.0021191028602908575269 -0.00051473003314943266157 0.0021847518424935974228 -0.0098268328270355049386 0 0 0.0015577748328561972536 0.0015577655997120816618 -0.0012570119906255578651 -0.0012570120859404048091 -0.0082663330035881825431 -0.00053161630218429055741 -0.0003820202111943489607;0 -0.0027126137842467751629 0.0060116972114546037009 0.0060116913518526290602 -0.0083279366821919602326 -0.0083279368210902177116 -0.025032917406268909155 -0.026268251597081255372 -0.018999911914817670805 -0.0059110397501672563153 -0.00021677546795600526877 0.0059910621670950688078 0.0059910591133087347585 -0.0061352150391820164249 -0.0061352152255772732931 0.0018184941444179788042 -0.004584806880743877433 -0.0057123942699681554483 -0.001569666014919656816 -0.0023352407820356208684 -0.00054405678847708333068 -0.00054405797114537974256 -0.00099195501680601305509 -0.00099195487489642025433 -0.01815223563539787241 -0.0084905461502190020251 -0.0045905081364671597097 0 0 0.0082611607224135109873 0.0082611726869619515196 -0.0084842802442517597367 -0.0084842803225345219537 -0.0040289443878012472927 -0.0091116925702572348911 -0.00916686133953666972 -0.004707578783602230435 -0.0047158089065180777699 -0.0039621026630391039877 0.0047347916320969705983 0.004734791623649660039 -0.016747245046986967282 -0.0054276520532369320476 0.0018649127689834101886 0.00057749740202226633803 -0.0019174497025654954705 0.0090278883723082133106 0 0 -0.0015479157404899189163 -0.0015479073100901528329 0.0012731036757049653263 0.0012731037627621878683 0.0076012661747727515785 0.00059731124525352430419 0.00046983157311071462861;0 0.00058338288487949630217 -0.0011907970714534997503 -0.0011907958907119357665 0.0016619143028392818762 0.0016619143309369046289 0.0050694980732032034546 0.0053129049702807171207 0.0038331204057877456097 0.0012160506243217425112 5.8680974521102033218e-05 -0.0012143577268600136941 -0.0012143571082240400827 0.0012462315733213157574 0.0012462316110339567102 -0.00033772127721072114871 0.00094371139486933283344 0.0011664587246015382677 0.00034493909260949526642 0.00049490856661922708222 0.00010470061580407010067 0.00010470085475761310191 0.00021332460269934055497 0.0002133245739828763983 0.0037192338397089678981 0.0017517576942741950458 0.00095321955849662768408 0 0 -0.0016858454647995775675 -0.0016858478573848101507 0.0017318953485721928168 0.0017318953640794423812 0.00084321246921279869105 0.0018662109373574807883 0.0018741228110037272663 0.0010227102984749858548 0.00088518636571542576221 0.0007344713461653558156 -0.00091455958772770592265 -0.00091455958601979357378 0.0033957559892051174255 0.0011228932773692426161 -0.00034334949955251307984 -0.00016886567112306679153 0.00035085612338367299203 -0.0018581631447141305682 0 0 0.00037342411523264143003 0.00037342240615456380156 -0.00031760178267943876742 -0.00031760180035985140267 -0.0015672522725965847262 -0.00017426024454625653774 -0.00015266991587183407304;0 -0.0015194376162575475974 0.0031773710891997855935 0.0031773679549965119437 -0.0044244910055244229471 -0.00442449108002667367 -0.013436163131131505927 -0.014087478053347058174 -0.010171520603506702812 -0.0032081828470646423478 -0.00014375914711237813707 0.003217991139378206366 0.0032179894998034773435 -0.0033003460959412740314 -0.0033003461959325375644 0.00091939206260181749724 -0.0024893702132927518142 -0.0030842447589936351771 -0.00089296095816902647767 -0.0012943635950013159929 -0.00028116128750764577023 -0.00028116192126379646469 -0.00055642714217795199213 -0.00055642706604451107767 -0.009825189137878276302 -0.0046187694128295023535 -0.0025089639110909859807 0 0 0.0044578103682445021499 0.0044578167331053289088 -0.0045791751010674300315 -0.0045791751424405710558 -0.0022126041540286730223 -0.0049293435141487236886 -0.0049529478566208429147 -0.0026578686396015061694 -0.0023990573179074642547 -0.0019981049288189719343 0.0024587002130768841231 0.0024587002085474066355 -0.0089967200907509099761 -0.0029570647444575725443 0.00093751037477314287227 0.00040736889725071260496 -0.00096035095203566688687 0.004901146880711867472 0 0 -0.00094388742400395393359 -0.00094388289467495212464 0.00079604402980855946698 0.00079604407662510164641 0.0041323766951047056703 0.00042092290906281493949 0.00036053930439498675393;0 0.0032039533392425618291 -0.0073368156024750108557 -0.0073368084968822430345 0.010135165296188479792 0.010135165464333170671 0.03030149456724546761 0.031806461486445385123 0.023027540169545262366 0.0071098935578241036909 0.00022879733930275335902 -0.0072472686881569301637 -0.0072472649929496268245 0.0074156154053247099606 0.0074156156309571914093 -0.0022703520693904233156 0.0055133873701755705538 0.0068906455851131401605 0.0018367052493360551662 0.0027756211180735815454 0.00067550294543657161267 0.00067550437828707207959 0.0011664005246371689402 0.0011664003528543862801 0.02186075940647834448 0.010193415995200917276 0.0054944415049865032163 0 0 -0.0099721104165752146031 -0.0099721249721694982943 0.010240200740127922141 0.010240200835684488273 0.0048189230450728526983 0.010983446489610906513 0.011057387038872223267 0.0055240857633093460449 0.0058834106826471466514 0.0049665457660819315594 -0.0058342892157811710244 -0.0058342892055540229029 0.02026205231153043948 0.0065174907109654869192 -0.0023333936461022259864 -0.00057384368919959711976 0.0024015231036723979491 -0.010859471447757784723 0 0 0.0017252633211517164318 0.0017252531278533276941 -0.0013932069115132883746 -0.0013932070168030370825 -0.0091332725757695999713 -0.00059260342452583682476 -0.00042725316155615413946;0 -0.00079505771079838223094 0.0016334946642413391074 0.0016334930468405509368 -0.0022783639149638367297 -0.002278363953441343067 -0.0069414439807540789101 -0.007275621390611961524 -0.0052502597268275592521 -0.0016630104774240299197 -7.8697690322160866608e-05 0.0016627046956359523618 0.0016627038485726329184 -0.0017060515095191695727 -0.0017060515611630143722 0.00046581933134408332184 -0.0012905393154325752944 -0.0015961685680266708611 -0.00046934768338835876431 -0.00067523745932804735831 -0.00014384142988990459232 -0.00014384175713794890186 -0.00029088468639628398344 -0.00029088464707273370803 -0.0050881592654218243607 -0.0023953075535975143495 -0.0013028204488445091925 0 0 0.0023069049783933262381 0.0023069082577137143934 -0.0023698630501349064736 -0.0023698630714062713515 -0.0011514460062374536758 -0.0025529583131018861349 -0.0025641621180554213799 -0.0013930802863328269059 -0.0012193506078991838033 -0.0010127765177537642952 0.0012571110519493818546 0.0012571110496104028007 -0.0046491777695213771723 -0.0015348572097051247243 0.00047398517431997643206 0.00022564157773602414492 -0.00048469977006516560755 0.0025409742980644252353 0 0 -0.0005049741866281407237 -0.00050497184648928101439 0.00042855400169592800181 0.00042855402589860155851 0.0021429938394221400254 0.00023294319969064135106 0.00020294473535469010434;0 0.00073958688656935414781 -0.0015169621970294378584 -0.0015169606944630887376 0.0021161608594428599379 0.0021161608951911735355 0.0064492960170605823089 0.006759565459625552393 0.004877599427908730842 0.0015456007674343947341 7.351462270848159561e-05 -0.0015448342601266287083 -0.0015448334731187757241 0.0015851791852784409553 0.0015851792332593833083 -0.00043197530504918537145 0.0011994361663328415024 0.001483244293436197965 0.00043678430625611103146 0.00062794542712182931186 0.00013352596080660257983 0.00013352626483825077151 0.0002705545756644900878 0.00027055453912980199829 0.0047284762313692775895 0.0022262766562814511814 0.0012110261353174519346 0 0 -0.0021436946400521716613 -0.002143697686081663667 0.0022022120648784973725 0.0022022120846325616422 0.0010705616296031357244 0.0023725223779642386386 0.00238284274044806791 0.001296065016494739059 0.0011311384596585261509 0.00093926053347714920459 -0.0011668164427372730487 -0.0011668164405642254995 0.0043196653327046193732 0.0014266781581525123709 -0.00043945291050895838366 -0.00021098707646224372698 0.00044930296916780536462 -0.0023616186896148689059 0 0 0.00047069887142645576049 0.00047069669719798374729 -0.00039969341856278605774 -0.00039969344105099396816 -0.0019917722591424667604 -0.0002177929786154861368 -0.00019002618798753690018;0 -0.0035059896880571626149 0.0081830819316451083173 0.0081830740349974687153 -0.01128621556391216918 -0.01128621575057321344 -0.033642535304000256713 -0.035316536445940072131 -0.025582388407596693553 -0.0078642273371251417147 -0.00023283697813669787698 0.0080422654742472662881 0.0080422613728719418574 -0.0082252860415315993958 -0.0082252862920089118981 0.0025638890935188577737 -0.0060975771858821454716 -0.0076342449628683511226 -0.0019983751005863592716 -0.0030488257192806790877 -0.00076268992251860056111 -0.00076269151415289334912 -0.0012705983546240553345 -0.0012705981639209659468 -0.024194023718001674006 -0.011259342505727734304 -0.0060570442200047818967 0 0 0.011055330499256740481 0.011055346707366514938 -0.011351716854775189408 -0.011351716961372685863 -0.0053161361773266455066 -0.012166819792716823331 -0.012253309722943521443 -0.0060154608939074743351 -0.006649837366997327949 -0.0056289689161748137844 0.0065430719168732770843 0.0065430719055194746375 -0.022489319405307284933 -0.0072037624181436549567 0.002637222479024184732 0.00055487700464575367802 -0.0027142930395105562859 0.012013622855128282263 0 0 -0.0018163244754535025436 -0.001816313169217307873 0.0014481504290027829955 0.0014481505458563729508 0.010095852834039645285 0.00057168290529220947525 0.00038039467373515148049;0 -0.0029336701186014847373 0.0067363811740092033667 0.0067363746536753046912 -0.0093035337372238888221 -0.0093035338915156470113 -0.02779863830697154245 -0.029183358551354638549 -0.021130475599272335874 -0.0065199200946529046671 -0.00020700177500862409542 0.0066494305979951382271 0.0066494272076974688876 -0.0068033482013279819242 -0.006803348408369640915 0.0020893045573413433769 -0.0050556296332925632075 -0.0063204672730514327786 -0.0016806301719106463231 -0.0025427419205036293215 -0.00061921422812992628348 -0.00061921554275806808994 -0.0010698470871121281301 -0.0010698469294909281838 -0.020052746443935280662 -0.0093494287098482269788 -0.0050393418679132101837 0 0 0.0091446527365370462725 0.0091446660946546097504 -0.0093904302932214227945 -0.0093904303809550209586 -0.0044129082933810287806 -0.010070650609205287346 -0.010139277615910567698 -0.0050599238496716533731 -0.0054044647703156718094 -0.0045629720434414633087 0.0053602676437935273257 0.0053602676344083411211 -0.018588735403874002278 -0.0059742682801437619472 0.0021482639583746622643 0.00051916506968677819233 -0.0022145702716955604876 0.0099557141972721231726 0 0 -0.0015754326908820591186 -0.0015754233362286044779 0.001270715274758082991 0.0012707153713327715584 0.0083743922937064597944 0.00053615714094905678449 0.00038432796516346548824;0 4.6771835602162512772e-05 -9.5203352048504432986e-05 -9.5203257591048375289e-05 0.00013290382457440156824 0.00013290382682244411354 0.00040562193241782751665 0.00042507525613286260531 0.00030665316713667368879 9.7351184852696704373e-05 4.7366897278973700054e-06 -9.7165037730182133289e-05 -9.7164988231402668389e-05 9.9722759146111958155e-05 9.9722762163449382451e-05 -2.6937149478564257878e-05 7.554953076220194809e-05 9.3356287758013278052e-05 2.7673423754823610381e-05 3.9659296836052104253e-05 8.3656476693850611963e-06 8.3656667871567833814e-06 1.7098531426400719567e-05 1.7098529128810968463e-05 0.00029769471295640250602 0.00014024417463918498411 7.6328422315925060571e-05 0 0 -0.00013492454120754660365 -0.00013492473256277175316 0.00013861150565054434916 0.00013861150689036926941 6.754554810671682414e-05 0.00014937888176811729506 0.00015000265024240152676 8.2010663066583297715e-05 7.0643445681271030499e-05 5.8589500661694656077e-05 -7.3054685430631573434e-05 -7.3054685293987269706e-05 0.00027171462700118284702 8.9912224546266985865e-05 -2.737574927765742402e-05 -1.3650787160789502292e-05 2.7965483761187271382e-05 -0.00014875935775411099331 0 0 3.0036839628807444636e-05 3.0036702880676054465e-05 -2.5569970808014664643e-05 -2.5569972222827894458e-05 -0.00012547382684602678303 -1.4084256208028963814e-05 -1.2367690321960211073e-05;0 0.0031259727272588602037 -0.0075446936455350870759 -0.0075446864110891775565 0.010377235264322715036 0.010377235435089431775 0.030756754946389710387 0.032306661964274875631 0.023425265288771750238 0.0071460097846462594662 0.0001777729796372446206 -0.0073509512227045098812 -0.0073509474733408509267 0.00751185332291973238 0.0075118535520606486908 -0.002417948240896786085 0.0055386972042022874357 0.0069573111209017338141 0.0017642739792878554643 0.0027365737049063897264 0.00071001076973335871742 0.00071001222627083083929 0.001132964306757276024 0.0011329641323242715251 0.022022996903575137867 0.01022015352970274786 0.0054836115212196587937 0 0 -0.010073437410299505498 -0.010073452300671203313 0.010342320926244765247 0.010342321024543073976 0.0047900587570092762607 0.011069772955730649427 0.011156891107685589989 0.0053354979931418498179 0.0062394994376915617271 0.0053014809425603387147 -0.0060863613886988580243 -0.0060863613783091064652 0.020554702551921332637 0.0065308251031084736671 -0.0024929554987408605003 -0.00038642755578933551258 0.0025812544565088236387 -0.010907428185545417834 0 0 0.001519978097717944801 0.0015199677603333426167 -0.0011835688374341719973 -0.0011835689441448253318 -0.0091617975938880196612 -0.00039572968397845416149 -0.0002117202455977444382;0 -0.00074145461880531504661 0.0015152050643776747863 0.0015152035623441687494 -0.0021144385572654093332 -0.0021144385930068382469 -0.0064484737776457365724 -0.006758242145334913617 -0.0048760735655383772788 -0.0015464931264452122864 -7.437017957574548982e-05 0.0015446707320202410219 0.0015446699451058816099 -0.0015851654165237657069 -0.001585165464495778137 0.00043015255310831939685 -0.0012001410942831633628 -0.0014835843119254776661 -0.00043827408216214118431 -0.00062912822624393684515 -0.00013326167632178161581 -0.00013326198028453149704 -0.00027114919070732931144 -0.00027114915417894938122 -0.0047301842626014389825 -0.0022277119012238267431 -0.0012121118433340313889 0 0 0.0021441790808368662441 0.0021441821247866837095 -0.0022027393153022582599 -0.0022027393350340404403 -0.0010720572171839777911 -0.0023734550501747953173 -0.0023835806723574268391 -0.0012996930267151793163 -0.0011271813217529136949 -0.00093543461505361260276 0.0011641354819317125888 0.001164135479759142739 -0.0043193735646892186114 -0.0014278926165026092129 0.00043738601103857321613 0.00021387331426237578312 -0.00044700555859335309832 0.0023630620552302487349 0 0 -0.00047394953906141230058 -0.00047394736508860285749 0.0004029448750065252674 0.00040294489749525532959 0.0019930759892316254021 0.00022072029994955362628 0.00019318525637005982596;0 0.0028659574245348722402 -0.0066379806274182041187 -0.0066379742131028648261 0.0091609839724959302859 0.0091609841242209864159 0.027332157011010670827 0.028697748818999706949 0.020784201776913771575 0.0064002874923201778443 0.00019543844079414031878 -0.0065373564054351362279 -0.0065373530721177606356 0.0066872117557640149352 0.0066872119593590932315 -0.0020712216261408043956 0.004962436205191445189 0.0062091817444786256974 0.0016377999133842791307 0.0024882281514703751858 0.00061189617556158025849 0.00061189746844962102611 0.0010450658821102374717 0.0010450657271174673343 0.019693304807717002675 0.009175087013545388942 0.0049419722162823880376 0 0 -0.0089836836824628979459 -0.0089836968332408593391 0.0092248580182862482263 0.0092248581047413274331 0.0043231509230747316649 0.0098896144352189612609 0.0099589182046843065937 0.0049366866386426734928 0.0053515733125469519549 0.0045231196914866456452 -0.0052945707180436386158 -0.0052945707088140146063 0.01827518776598660924 0.0058612499481652804642 -0.0021310574533991138296 -0.0004821908922707586519 0.0021995607822168764846 -0.0097714908619214359969 0 0 0.0015160989887731495234 0.0015160897914400272082 -0.0012165577049602826955 -0.0012165577998872721417 -0.0082181353109035074761 -0.00049763067376380515534 -0.00034614442664563440126;0 0.0029796479846299107896 -0.0067618311551292126921 -0.0067618245950732142752 0.0093480117556133130591 0.0093480119109294046442 0.027987758806599649652 0.029376702711129951129 0.02126304047818321219 0.0065787628332186331298 0.00021971331895715689856 -0.0066955423532115932936 -0.0066955389396587475237 0.0068525724967874119056 0.006852572705206989509 -0.002079925676968626385 0.005101803606505458076 0.0063709210736764684477 0.0017126875145039696571 0.0025767333513747148026 0.00061885953542852576749 0.00061886085855828484436 0.0010870645041953087666 0.0010870643455202545508 0.020222394559541258252 0.0094382158199470805177 0.0050921310868554895551 0 0 -0.0092170736393627824418 -0.0092170870646769223478 0.0094651917627122991034 0.0094651918507730886665 0.0044643022908719591849 0.01015564971442524389 0.010222222051589532552 0.0051488783418711407333 0.005387189562853683493 0.0045414823442643786205 -0.0053627214795182783641 -0.0053627214700715103435 0.018717736502638738366 0.0060327229737115661487 -0.0021367291986574090713 -0.00056271287320597523484 0.0021996199761459465059 -0.010047155381762191625 0 0 0.0016328881873193552138 0.0016328787678096610535 -0.0013259843085206991092 -0.0013259844057887458079 -0.008453448024833028554 -0.00058153646234335805345 -0.00043189329730794267593;0 -0.0033421662140116878588 0.0077337930563008390819 0.0077337855811669287825 -0.010674183604823136301 -0.010674183781611133737 -0.031859928307028051453 -0.033444633886231769915 -0.024220714697369843255 -0.0074603202954289663321 -0.00022946550846451708549 0.007618129578366088922 0.0076181256936721473971 -0.0077931000877486189884 -0.0077931003249776756997 0.0024098550460835820725 -0.0057847051923750284624 -0.0072368126936395464274 -0.0019100067978420106739 -0.0029013376501475286219 -0.00071644982921834348289 -0.00071645133618266525818 -0.0012142293478679469509 -0.0012142291672549920204 -0.022946267320953582514 -0.010688451844796328233 -0.0057553085378449411053 0 0 0.010476137700732567407 0.010476153029520183374 -0.010757355928058470046 -0.010757356028794040972 -0.0050482655730813971381 -0.011533501080526271237 -0.011613579966026951751 -0.0057482611143679328281 -0.006245922474945405159 -0.0052803873210616626005 0.0061685007602037648933 0.0061685007494505566736 -0.021300782593278715094 -0.0068356171853138011918 0.0024780743635595264829 0.00056105712373387395513 -0.0025509899193917914655 0.011395261260075251544 0 0 -0.0017633148046144176118 -0.0017633040918865337983 0.0014144095232057380014 0.001414409633884385455 0.0095800695892228719674 0.00057878387958701816175 0.00040107222258965009257;0 0.0034814003740054120899 -0.0083471549900879637301 -0.008347146975691898535 0.011487165841321559864 0.011487166030515428769 0.034092190022554161311 0.035799652675512570743 0.025952272137421694004 0.0079289827070561039873 0.00020527020747255093078 -0.0081463194784702035178 -0.0081463153232706371487 0.0083261692100004437017 0.0083261694638735155721 -0.0026617698857754603856 0.0061463700365815424412 0.0077150841247164789888 0.0019683405846210493342 0.0030438242244180259248 0.00078754848613978543914 0.00078755010026343788554 0.0012575911079691676382 0.0012575909146904096225 0.024420766136126891011 0.011336333529880601723 0.0060835567780419324765 0 0 -0.011176532379169473036 -0.01117654886998919149 0.01147505498218041875 0.011475055090937390928 0.0053314975157828072352 0.012285935053158707903 0.012380320274409599424 0.0059392661573676964679 0.0068927067561799122697 0.0058540203644866723245 -0.0067231563816277763526 -0.006723156370118256453 0.022782938987878375431 0.0072528472107227237586 -0.0027417689984064476903 -0.0004504386078906221706 0.0028299383946728527174 -0.012109402365541688945 0 0 0.001707886802197873706 0.0017078753518100914504 -0.0013352137982972796509 -0.0013352139166279753703 -0.010168982003301832787 -0.00046172341193917860709 -0.00025839317035106511332;0 -0.002985898217084946224 0.0068418648923023539857 0.0068418582671063172401 -0.0094509019063704624575 -0.0094509020631561614645 -0.028249681353250181287 -0.029655458499681566081 -0.021470912573355437764 -0.0066282118627754346013 -0.00021244373147171982273 0.0067573173571653490435 0.0067573139118824628035 -0.0069141123888338774581 -0.0069141125992228501945 0.002118779695426481046 -0.0051397242051684109351 -0.0064242484142160525412 -0.0017115483285078056126 -0.0025869657617793857633 -0.00062869194787225520221 -0.00062869328374658194156 -0.0010886541628393456207 -0.001088654002667861255 -0.020383214093248679805 -0.0095050389531634079526 -0.0051239463774676004618 0 0 0.0092951067548226566639 0.0092951203255217298288 -0.0095449950942510294188 -0.0095449951833582284688 -0.0044888700771895965677 -0.010237319977589436418 -0.010306570754040679863 -0.0051510826999834292625 -0.0054833185269999159747 -0.0046284465408136547457 0.0054411074189260289977 0.0054411074093893502593 -0.018890649578889431859 -0.0060745368536787745437 0.0021781511838479183582 0.0005344763749004501855 -0.0022443349256093384804 0.010121748790819567673 0 0 -0.0016088502199506388591 -0.0016088407138918178925 0.0012991874037877730076 0.0012991875019375917922 0.0085141572571392314106 0.00055203169522670609334 0.00039821793130994075907;0 -0.0030453841254677390012 0.0069961710167970713597 0.0069961642455041413505 -0.0096619568749294719445 -0.0096619570351490456639 -0.028868861931657240072 -0.030305823118654880155 -0.021943367670595081281 -0.0067700495846409192158 -0.00021463342642472023119 0.0069049568163181609254 0.006904953295662999424 -0.0070647362061708055339 -0.007064736421167216833 0.0021702477377570734626 -0.0052496235195648470115 -0.0065631821075572884666 -0.0017443086025209736216 -0.0026398442846579019821 -0.00064394052353966004746 -0.00064394188878661438088 -0.0011096861374695894502 -0.0011096859737896906054 -0.020821004822091700864 -0.0097066339948730373521 -0.0052312372594906881781 0 0 0.0094969309395882064995 0.0094969448132625391285 -0.0097521497675609261635 -0.0097521498586798753549 -0.0045832862270503262406 -0.010458479044401071054 -0.010529757169497685684 -0.0052503592484590879547 -0.005617208730861637106 -0.0047432615043799730356 0.0055680188573486036688 0.0055680188476030078454 -0.01930389457971558656 -0.0062038928871402760842 0.0022313402295837821664 0.00053662710516102834699 -0.0022990617891596423945 0.010338608533397915246 0 0 -0.001632604225132329185 -0.0016325945119891093274 0.0013162114525378707484 0.001316211552833595165 0.0086956176792797323927 0.00055411960578228051065 0.0003960399222486981393;0 0.0032618770330556713134 -0.0076752222378514336348 -0.0076752148430170872087 0.010578647392980724401 0.01057864756773407855 0.031486427763827755377 0.03306050736823031716 0.023954224061791210693 0.0073499067874002134079 0.00020891658974937513875 -0.0075273581830099332152 -0.0075273543442145110505 0.0076970111873573311689 0.0076970114218523786806 -0.0024188713335475489109 0.0056982086573562681225 0.0071401147923511208357 0.0018550233916842186113 0.0028409839473217787971 0.00071558995504149367894 0.00071559144504836384379 0.0011838979866680250045 0.0011838978081446707019 0.022624242845188356071 0.010522809657879887008 0.0056581063258968429183 0 0 -0.010337222279605340694 -0.010337237466380707479 0.010614084929842350011 0.010614085029824426448 0.0049553867577877205863 0.011372255947330428896 0.011455382179001346796 0.0055934985664707918482 0.006258764732214131335 0.0053021432389559804838 -0.0061498729869691650535 -0.0061498729763386338759 0.021047318242555634188 0.006727620691456955189 -0.002490068226239541653 -0.00049095352122981823165 0.0025688067242400488763 -0.01122388683807530943 0 0 0.0016680745907938117345 0.0016680640058109551509 -0.0013234438428559713169 -0.0013234439521819503591 -0.0094325362176960955707 -0.00050544689696884555121 -0.00032467151334332597281;0 -0.0034766449487877715274 0.0082642097542215062211 0.0082642018067413183791 -0.011380985139976939474 -0.011380985327672163421 -0.033823775153982493791 -0.035514576071939245316 -0.025739338331240275287 -0.0078794013699614150886 -0.00021334305889342838978 0.008083370615921292579 0.0080833664930785743136 -0.0082635796457005729343 -0.0082635798975631072349 0.0026207582007135394805 -0.0061083807858225199622 -0.0076611312901937698994 -0.001970843215798113654 -0.003034357030875771237 -0.00077650953456112224368 -0.00077651113559165261743 -0.0012574389055436585496 -0.0012574387137928564641 -0.024259629325734811955 -0.011270775837585135168 -0.0060532470415826569038 0 0 0.011096820060213910542 0.011096836400161238026 -0.011393569822486168674 -0.011393569930154572381 -0.0053068922923785776316 -0.012202829428852460594 -0.012294353306398499506 -0.0059427561884207724674 -0.0067891059391370391085 -0.0057599219873534423728 0.0066409255691689140361 0.0066409255577510768742 -0.022605786369553553666 -0.0072105565168212714527 0.0026984413425024072856 0.00048253135693385250209 -0.0027828037842185147054 0.012034558986302283656 0 0 -0.0017369063199783396981 -0.0017368949571928196923 0.0013670233725828358738 0.0013670234900074419368 0.010108620645035025845 0.0004956374481609575073 0.00029697385145254222467;0 0.00058590386591415540615 -0.0011993304400202814668 -0.0011993292515555555294 0.0016733797786887788343 0.0016733798069666766528 0.0051017810214666753366 0.0053470156800289447147 0.0038580773177557398101 0.001223130404605824546 5.8528681226478424871e-05 -0.0012220702728114598516 -0.0012220696502416340812 0.0012540531800610994762 0.00125405321801555481 -0.00034094144382796319221 0.00094920129130057209147 0.0011735659543484198465 0.00034619935256350264051 0.00049729458703458339144 0.00010551512538315793938 0.00010551536587614357269 0.00021430404726929447637 0.00021430401836901942676 0.0037415176360845697583 0.0017618730235216481256 0.00095854035882488302246 0 0 -0.0016961216794646222401 -0.0016961240883056690094 0.0017424342626470097802 0.0017424342782649529168 0.00084759368276301344514 0.0018773459720846084366 0.001885425512259901416 0.0010269266357643077898 0.0008931340819693951022 0.00074139524092757004819 -0.00092192028110417694603 -0.0009219202793852685103 0.0034172191130340170279 0.0011291963392253642241 -0.00034675510609931051295 -0.00016817491921100979186 0.00035444851222967674364 -0.0018689349662838351113 0 0 0.00037379518169054656808 0.00037379346174618737798 -0.00031762267227927802561 -0.00031762269007018333056 -0.0015762869750462341675 -0.00017358040583386713756 -0.00015171380644788494125;0 -0.0034262360706035200307 0.0084248776318582643818 0.0084248695802471643135 -0.01157072917072291332 -0.011570729360565299923 -0.0342011551831572988 -0.03592510604069036606 -0.026061803998857196313 -0.0079169539978783450701 -0.00017728784861738281138 0.0081694157794550224111 0.0081694116118511388852 -0.0083445927768210255426 -0.0083445930315638010277 0.0027298435142029137818 -0.0061356236507633431579 -0.0077201718040371437868 -0.001922024296035495421 -0.0030111728777126940855 -0.00080364182806824961593 -0.00080364344850955516872 -0.0012338787234440077092 -0.0012338785295154979568 -0.024410184805072010494 -0.011304781220952473189 -0.0060527262920723858344 0 0 0.011186965577702628893 0.011186982182885576304 -0.011484735002835786549 -0.011484735112629455497 -0.0052955995500286534919 -0.01228399811106371288 -0.012385037486362845613 -0.0058124294207488932246 -0.0070569755582895327128 -0.0060110491234332151175 0.0068307658550420344984 0.0068307658434914163975 -0.022850119351759169001 -0.0072323010581860913693 0.0028151746302843652127 0.00034811990343120748082 -0.0029151654203734876994 0.012086743884899824042 0 0 -0.0015900518219938103524 -0.0015900403404341370735 0.0012165399630395771092 0.0012165400816694629717 0.01014360175802993258 0.00035358426778093771797 0.00014093359339311815805;0 -0.0022278419871169558193 0.004835307802488889202 0.004835303069674512684 -0.0067105933061389257815 -0.0067105934184458499586 -0.020243317289451216723 -0.021237130232227934695 -0.015351345788824183672 -0.0047993672446458562203 -0.00018989962128189273203 0.004846452316192303468 0.0048464498462865756093 -0.0049656870448935601023 -0.0049656871956106837795 0.0014404421061667326345 -0.0037231041016521559603 -0.0046295116891195454978 -0.001296579399473806642 -0.0019104800286423673315 -0.00043335463370833493752 -0.00043335558954499654814 -0.00081607088604657748287 -0.00081607077129909285675 -0.014725562778002652953 -0.0069008368273746935329 -0.0037378116301835847407 0 0 0.0066928786844077546234 0.0066928883287026060683 -0.0068741675324275591102 -0.0068741675953872443186 -0.0032839490598300631954 -0.0073886130522762714576 -0.0074300811940231515501 -0.0038796938786862448893 -0.0037399972077872406517 -0.0031324402651393928702 0.0037843407245119588603 0.0037843407176824652924 -0.013547256616238975355 -0.0044123151910362302247 0.0014746054966083357602 0.00052025746390028091738 -0.0015150139557514044012 0.0073300999861041719191 0 0 -0.0013142186392987151213 -0.0013142118181454008445 0.00109176433203603848 0.0010917644024797236533 0.0061756222934192797278 0.00053815328879801662462 0.00043962190466899066449;0 0.0028744402320657444667 -0.0065162207295093050458 -0.006516214406517447516 0.0090092627257523216072 0.0090092628754684846853 0.02697720728362231965 0.028316544091246974302 0.020495158930022565336 0.0063426975687067895654 0.00021265866186835353634 -0.0064542004471764930981 -0.0064541971567395935855 0.006605723155363946511 0.0066057233562690559001 -0.0020031415860644434523 0.0049187366897282770381 0.0061417736374250395115 0.001652770961387147429 0.0024852229669355355851 0.00059557846118798518989 0.00059557973651445353554 0.0010494023128323690108 0.0010494021598801809864 0.019496965799791529661 0.0091009344506618097131 0.0049109219033153916206 0 0 -0.0088846702029254202848 -0.0088846831412068266037 0.0091238821384612769916 0.009123882223321749807 0.0043039018154835588861 0.0097897750401611041693 0.0098538002132508521053 0.0049693128433932849328 0.0051860743946337576823 0.0043710302957990308098 -0.0051661364176765591297 -0.0051661364085703034496 0.018042421668199786627 0.0058161794794972850736 -0.0020578459848587145331 -0.00054654441561652279593 0.0021191780911240048167 -0.0096859659627356649997 0 0 0.0015791801781198419163 0.0015791710973666426166 -0.0012833081742352407499 -0.0012833082679909243052 -0.0081503433090287964735 -0.00056489551971446194147 -0.00042114494491756631657;0 -0.00074727990141676544841 0.0015274414355035035272 0.0015274399214119387287 -0.0021314706937750780777 -0.0021314707298030893812 -0.0065001532162498616013 -0.0068124317002225291337 -0.0049152053790494408883 -0.0015588221699437713672 -7.4914651528084529519e-05 0.0015570480672059657315 0.0015570472739854564898 -0.0015978580456849963282 -0.0015978580940416305632 0.00043370537787259627301 -0.0012097081057371203254 -0.0014954425159862977813 -0.00044169425729841474155 -0.00063409482428313998503 -0.00013434446300947952492 -0.00013434476941006669171 -0.00027328464674598271786 -0.0002732846099247567993 -0.0047679550423096270922 -0.0022454626279003056868 -0.0012217519124426783582 0 0 0.0021613178684119142663 0.0021613209368576578526 -0.0022203444215421128116 -0.0022203444414332224044 -0.001080551619352418868 -0.0023924028448717238673 -0.0024026211501033865013 -0.0013098827370613078808 -0.0011364422715613271223 -0.00094315247812215606896 0.001173616088691016926 0.0011736160865010272 -0.0043539745431776036289 -0.0014392527540792606454 0.00044101126396045510665 0.00021541355686544917149 -0.00045072135419362794207 0.0023818963219814177565 0 0 -0.00047755042370324759723 -0.0004775482323089582596 0.00040597719978283444697 0.00040597722245158999153 0.0020089561570575693167 0.00022231293690937577396 0.00019454360889314975145;0 -0.0035557736751642282647 0.008590013208837137329 0.0085900049725692994435 -0.011814211648476935154 -0.011814211842824721282 -0.035022920792431633252 -0.036778062210147177691 -0.026667004034488628328 -0.0081334336561003032356 -0.00020231001862082786751 0.0083670104872806284196 0.0083670062192111767374 -0.0085501972235230670749 -0.008550197484313385235 0.002751878432334224113 -0.0063045401309817575286 -0.0079191233099538647922 -0.0020055910810256247223 -0.0031137011699688241402 -0.00081442238591981918911 -0.0008144240444418075547 -0.0012817796926112567935 -0.001281779494065277223 -0.025056073198699648635 -0.011622036357924782346 -0.0062318477981060833859 0 0 0.011475144692364758897 0.011475161652836020701 -0.011781302955722402701 -0.011781303067653434852 -0.0054632941578270045532 -0.012610209562391562835 -0.012708962968021745091 -0.0060527921455532070552 -0.0071287237158257684561 -0.0060604898490588350254 0.0069329430812590155803 0.00693294306943577094 -0.023402401894183477021 -0.0074380839465845519087 0.0028350957853057311836 0.00042934269245626380728 -0.0029270453604503090042 0.012422140939595342421 0 0 -0.0017139073232590878743 -0.0017138955648352163612 0.0013312638762401935322 0.0013312639977849300473 0.010428385949086370343 0.00043901602523254839054 0.00022697647375738452227;0 0.0011046497728517310453 -0.0022791745015128934103 -0.0022791722468411840935 0.0031776936984292260095 0.0031776937520570105143 0.0096738109222575998508 0.01014032537819379437 0.0073184789073009633154 0.0023157600439442237346 0.00010819185763626435566 -0.0023171328690769739736 -0.0023171316885846750082 0.0023772739952740394587 0.0023772740672515020773 -0.00065225761636118805356 0.0017970407063434086416 0.0022235463655397545712 0.00065140790642637981522 0.00093883925507822385721 0.00020092441044212744523 0.00020092486656157876302 0.00040425386835833942425 0.00040425381355263940693 0.0070869539301120689639 0.0033351376097385332722 0.0018134498151732326987 0 0 -0.0032136687228148568332 -0.0032136732959681937535 0.003301322618647706611 0.0033013226483267110907 0.0016018750883425619987 0.0035557544307012892496 0.0035717017352719492712 0.0019347887974721321696 0.0017060015084818770052 0.0014179224331068698752 -0.0017563336947097045893 -0.0017563336914496535061 0.0064788205942468805876 0.002136616767751874698 -0.00066403864770295272825 -0.00030938844776282346848 0.00067933873819383909769 -0.0035381973499993665984 0 0 0.0006979698076404304433 0.00069796654638217632462 -0.0005914809496001263104 -0.00059148098332432400698 -0.0029838438704570834949 -0.0003194710415008489182 -0.00027726701562189319701;0 -0.0012475290239137247755 0.002579168389635290784 0.0025791658392975802365 -0.0035952802643353879569 -0.0035952803249900701886 -0.010940983744259757601 -0.01146902082293639949 -0.0082779531792838596804 -0.0026180933782505213386 -0.00012156513466678205821 0.0026206146768066288129 0.002620613341684532166 -0.002688489217734197495 -0.002688489299142482556 0.00073935103139473063588 -0.0020316271227648285101 -0.0025143070786774156244 -0.00073528485987003704659 -0.0010606355174686765089 -0.00022750125217840070908 -0.00022750176807509990291 -0.00045658571769653145695 -0.00045658565571023911013 -0.0080130564112739933319 -0.0037703501756326594611 -0.0020497912300724203429 0 0 0.0036339275776673053871 0.0036339327514729440755 -0.0037330167162808124658 -0.0037330167498660620645 -0.0018101998925473014417 -0.004020381808657371922 -0.0040385966255929569776 -0.002184616467282232341 -0.0019331021123672488798 -0.0016071847362569096056 0.0019887639157411237181 0.0019887639120538514424 -0.0073272533377374427649 -0.0024151977719669972741 0.00075289038007799911293 0.00034716955780997375792 -0.00077037972297812101936 0.0040000614440130807109 0 0 -0.00078626187707226161908 -0.00078625818865740867113 0.00066583145229014682482 0.00066583149042899545788 0.0033732357120853529581 0.00035851999562262640373 0.00031057059384125094287;0 -0.0034902048510741007399 0.0082222331079876490034 0.0082222251875130429599 -0.011331516243064025315 -0.01133151643020350284 -0.033726119549944096054 -0.035408249842421427034 -0.025655679724219435101 -0.0078699607490236439533 -0.00022287874491558380967 0.0080611252756745566811 0.0080611211644229761875 -0.0082426725278575176115 -0.0082426727789753247155 0.0025921214916805926896 -0.0061015384169310123846 -0.0076459874750254988932 -0.0019838894972101996268 -0.0030407061445464115233 -0.00076948543915863045015 -0.00076948703516346308399 -0.001263632831518950693 -0.0012636326403316455562 -0.024221298791225611552 -0.011262366986182948889 -0.0060536378239407027252 0 0 0.011073626618355309273 0.011073642889314441393 -0.011370123381792100747 -0.011370123488906430306 -0.005310110960486311843 -0.012182056450810333642 -0.012271080124995134217 -0.0059771484983653019873 -0.0067188339971653030305 -0.0056940014978658255729 0.0065911262149153581821 0.006591126203531897168 -0.022542779089451056573 -0.0072053727839390428397 0.0026676735911006334637 0.00051802457637376681486 -0.0027483476383498980575 0.012021279868061814436 0 0 -0.0017756071504143344265 -0.0017755958182891695349 0.0014066577920251259991 0.0014066579091391107417 0.010099839772816521927 0.00053298547828417336836 0.00033800382669501536368;0 0.00051147709550663535139 -0.0010423426899840108201 -0.0010423416560765977942 0.0014549469123422067041 0.0014549469369474208377 0.0044394998298990890825 0.0046525208938313928481 0.0033564987156968284845 0.0010652590191365437361 5.1649503547828725346e-05 -0.0010634569716123666843 -0.001063456429852670769 0.0010914163227039529701 0.0010914163557291509977 -0.00029522224895687067606 0.00082669171625286968098 0.0010216592577504547256 0.00030253684671435510144 0.00043378472797349777301 9.1616338669370012181e-05 9.1616547918873316196e-05 0.00018700177286605799759 0.00018700174771871057701 0.0032577305926169979229 0.0015345780176839337282 0.00083513190123772011036 0 0 -0.0014765688749382567622 -0.0014765709696869346642 0.0015169111823381674787 0.0015169111959123791119 0.00073891375406263991657 0.0016346635337157583955 0.0016415340705194948062 0.000896753229096865093 0.00077403679916295139128 0.00064208311841286577412 -0.0008001433345708311223 -0.00080014333307521987027 0.002973838552605235358 0.00098376911664124137673 -0.00030007648049253294632 -0.00014875578945940527275 0.00030658234787810746463 -0.0016277708336179203073 0 0 0.00032801246197426128445 0.00032801096527769598929 -0.00027912460778940268889 -0.00027912462327367941863 -0.001372954749849613406 -0.00015349094300857348667 -0.00013465262243077697488;0 0.0013561051591524653226 -0.0028250859426928215563 -0.0028250831537445786346 0.0039353065050743091594 0.0039353065713811702028 0.011958901842164070331 0.012537796409948200743 0.0090515357334387570865 0.0028575222815541471109 0.00012958207704428983259 -0.0028642779410085876003 -0.0028642764816877671653 0.0029378731083994492727 0.0029378731973923504286 -0.00081493760541678393269 0.0022173302434749654448 0.0027461782348279974858 0.00079774829801925806801 0.0011544667705496787936 0.0002496966774335088006 0.00024969724144920536074 0.00049655174100910967356 0.0004965516732492517276 0.0087495445702839014235 0.00411439137104171581 0.0022356128274799930492 0 0 -0.0039691146861082727756 -0.0039691203478642135896 0.0040772308280368745742 0.0040772308648231846834 0.0019723848527749962209 0.0043897022595623062108 0.0044103490793798490882 0.0023730994119119069689 0.0021277831293652483928 0.0017711242166308024948 -0.0021835239463782710363 -0.002183523942347157052 0.0080080259370417569004 0.0026345772408173356166 -0.00083063054385516441568 -0.00036822011527317028996 0.00085059534235042253032 -0.0043655622684884466678 0 0 0.00084657557074286618123 0.0008465715392817643823 -0.00071497073556290083839 -0.00071497077723788450641 -0.0036810509396855246519 -0.00038040748211184570362 -0.00032711305747795595827;0 -0.0032797687023949431695 0.0076493632717668175527 0.0076493558894411631255 -0.010550723730759204583 -0.010550723905290524535 -0.031449339107601850807 -0.0330177403674556183 -0.023917110138367274341 -0.0073534414374312601081 -0.00021805503457691033029 0.0075193923411871095575 0.0075193885066763355499 -0.0076905632529587295704 -0.0076905634871575860589 0.0023964854192631314389 -0.0057014050905933866265 -0.0071380563089086471878 -0.0018700805331006303562 -0.0028515588347568805033 -0.00071055299408854394067 -0.00071055448196888804525 -0.001191283285057826314 -0.0011912831067564513474 -0.022626256317191107553 -0.010532204320913436321 -0.0056675349876655579592 0 0 0.010333368351125181775 0.010333383500020247234 -0.010610462008719335342 -0.010610462108358935732 -0.0049669543302594230949 -0.011372382620722229149 -0.011453333291379111381 -0.0056336941684395451524 -0.0062052653464518131576 -0.0052510402278425419298 0.0061143168220335261664 0.0061143168114169976768 -0.021024588545756884433 -0.0067342734261589334843 0.0024656987167709239726 0.00052415473698177908034 -0.0025411081168570989058 0.011230479371867900865 0 0 -0.0017059394232201662272 -0.0017059288491112880107 0.0013616032300868344262 0.0013616033393117744996 0.0094401226181409225724 0.00054028311572734374121 0.00036251424611091331157;0 0.0025924690273476883734 -0.0058032965906122876976 -0.0058032909455217607242 0.0080322554785446902831 0.0080322556122994527572 0.024101411525427197946 0.025295273656198765527 0.018301734989069035064 0.0056804870319110854424 0.00020027334422474896364 -0.0057677063690337168275 -0.0057677034289368659531 0.0059049583712020162554 0.0059049585506918238209 -0.0017684792053895670005 0.0044055860700374302463 0.0054944848144548013441 0.0014960533795185882236 0.0022360006426630709038 0.00052673545851646868046 0.00052673659750332240629 0.00094827695754462525482 0.00094827682089720086774 0.017453442531830853229 0.0081569509095790714015 0.004406802891647320676 0 0 -0.0079459633130605951401 -0.0079459748496596305928 0.0081602832605234768698 0.0081602833360933952483 0.0038626197580364819706 0.0087601295488064674644 0.0088151550963253711563 0.0044934720372404842251 0.0045789248162414518742 0.0038521554526355543738 -0.0045837599400984649703 -0.0045837599319633196351 0.016122193047651691561 0.0052122273333450553842 -0.0018152636946082560156 -0.00052689919522021862359 0.0018690251186916102127 -0.0086742870156968840401 0 0 0.0014567191633523260061 0.0014567110467837661707 -0.0011921952633934698555 -0.0011921953471813473164 -0.0073023757145826324877 -0.00054491182085686102731 -0.00041992845338678972235;0 0.0023396951328943744672 -0.0050792007584678335388 -0.0050791957871219230863 0.0070489396342293423811 0.0070489397521934175211 0.021263545167587095258 0.022307193439460925449 0.016124918747984599843 0.005040963672051917456 0.00019933744203076206986 -0.0050905802587852657173 -0.0050905776644393748234 0.0052157988843344865043 0.0052157990426433794087 -0.0015132738981496200899 0.0039105249482213975259 0.0048626398247838724734 0.0013615694169249693488 0.0020064877206639902298 0.0004554482310987809611 0.00045544923511204958968 0.00085680201250996131535 0.00085680189198169827251 0.015466567878608420902 0.0072477977439763963813 0.0039255553463509148052 0 0 -0.007030190011082402754 -0.0070302001418705841948 0.0072206076401584553051 0.0072206077062943923098 0.0034494896119045491932 0.007760940586600702934 0.0078045093972426739237 0.004073884952058411113 0.0039299691454291142342 0.0032917703286623020871 -0.0039756025441447830071 -0.003975602536971305917 0.014229877377568343061 0.0046344985026489943919 -0.0015491562556069536725 -0.00054564511914572321957 0.001591254730230872794 -0.0076993547670781304487 0 0 0.0013793523948500106824 0.0013793452303572668188 -0.0011457012984673290313 -0.0011457013724619320109 -0.0064864643485947458962 -0.00056440080236206215721 -0.00046078571064334626628;0 -0.0027236375768996045829 0.0060956517130989094563 0.0060956457832967922417 -0.0084370586401395480242 -0.008437058780636863195 -0.025318002892606869536 -0.026571192688691232936 -0.019224679486729321504 -0.0059672697167918878694 -0.00021064735209487989468 0.0060585733357700300925 0.0060585702473611542304 -0.0062027999786131793672 -0.0062028001671511102944 0.0018570730420470903024 -0.0046280498922224126701 -0.0057717456144928784567 -0.0015717774520184163 -0.0023490632220424562289 -0.00055372858548671235676 -0.00055372978195337573155 -0.00099566056403578248081 -0.00099566042049775206092 -0.018333354353136082499 -0.008567935130361727103 -0.0046286202053791138458 0 0 0.0083476283342870227083 0.0083476404530713928243 -0.0085727819994485376237 -0.0085727820788266979185 -0.0040588401388091657415 -0.0092031017172640242063 -0.0092607994592567265124 -0.0047197436232669157108 -0.0048109047114230467368 -0.0040474751789307435168 0.0048146361702026425206 0.0048146361616575794259 -0.016935800339789586211 -0.0054758336031794458895 0.0019060394539402180942 0.00055352547121013387019 -0.001961527913130135109 0.0091129363015726508324 0 0 -0.0015299347992037174663 -0.0015299262739819862161 0.0012520902064537440482 0.0012520902944747080467 0.0076711433170989027502 0.00057241766806889336945 0.00044099438344633235714;0 0.0029516143400803861348 -0.0068446813819965316578 -0.0068446747693990655365 0.0094452988850379348412 0.0094452990414386588103 0.02817589362622026361 0.029583146387763631369 0.02142609769665998129 0.0065961335894697313911 0.00020040236925145468597 -0.0067387254565172954174 -0.0067387220204492646186 0.0068930099158927941871 0.0068930101257620307598 -0.002137227669038107257 0.0051142805631222247598 0.0063998385512133749986 0.001686085602776330513 0.0025632313601511519732 0.00063182699978154546663 0.00063182833261802998429 0.0010755350262800866899 0.0010755348665090896931 0.020295877764778438856 0.0094543386505987602603 0.005091519456563272511 0 0 -0.0092604643814784906586 -0.0092604779409205355278 0.009509019704409807025 0.0095090197935589516887 0.0044554863822519538696 0.010193836990307052898 0.010265465838684270997 0.0050817040977574976651 0.0055243364226764003072 0.0046701552414252162429 -0.0054615121369565623743 -0.005461512127442592901 0.018838779154683071848 0.0060406377520543300119 -0.0021989709673100954826 -0.00049222880769604388136 0.0022689799774142610338 -0.010071135754898777326 0 0 0.0015568020503750846714 0.0015567925705357646676 -0.0012480669372994732114 -0.0012480670351567803213 -0.0084693206237928114755 -0.00050789198598249639307 -0.00035117622524805851367;0 0.0031802087805585205031 -0.0074117646032131039718 -0.00741175744933224908 0.010223610123264045835 0.010223610292408966127 0.030476114436895504478 0.031997197309181012181 0.023177537015713463309 0.0071272027621045053875 0.00021190676430781388404 -0.0072872921787188486495 -0.0072872884626593087062 0.0074532785800967898612 0.0074532788070672071484 -0.0023213118931801604225 0.0055259556831122758763 0.0069180454315720240482 0.0018137994498917584495 0.0027645553575595394058 0.00068741069390170069994 0.00068741213572303771877 0.0011562220760256069693 0.0011562219032304553012 0.021931162401327329581 0.010210018446008869986 0.0054950234761784472887 0 0 -0.010013487307640135324 -0.010013501985783631112 0.010282043381707909463 0.010282043478250150678 0.0048130215106857911905 0.011020582863033201448 0.01109897155157810178 0.0054656329041843192129 0.0060066955555437926556 0.0050820952706449335629 -0.0059228971140975516033 -0.0059228971038085111503 0.020374603446716217647 0.0065266141615329007972 -0.0023885432647110511721 -0.00051166933143965607177 0.0024628340039677160296 -0.01088386572630618658 0 0 0.0016581755537964479492 0.001658165304881950488 -0.0013244249184496737805 -0.0013244250242915056072 -0.0091498098253494815346 -0.00052753096811788936175 -0.0003558102146851842046;0 -0.0035351426136582715654 0.0083538683446213925915 0.0083538603019342617256 -0.01151001745160815451 -0.011510017641600535712 -0.034241402708549542599 -0.035949499282052578553 -0.026050040846942526529 -0.0079853121488730124944 -0.00022284542501378352421 0.008183536088558530236 0.008183531914738032681 -0.0083672250814963468335 -0.0083672253364426799754 0.0026387058316709763144 -0.0061908502658176390795 -0.007760103371273301999 -0.0020075068989371682403 -0.0030817951085197574368 -0.00078347312962387968913 -0.00078347475014336944582 -0.0012787514956678937283 -0.0012787513015647686623 -0.024578361219601586873 -0.011424635907753099076 -0.0061387963356869246212 0 0 0.011240271471573142978 0.01124028799899276683 -0.01154109201481389943 -0.011541092123646866374 -0.0053858879753802720025 -0.012363797017339965556 -0.012454888083615422642 -0.0060486879428729356176 -0.0068411336101411547236 -0.0058001657591197500544 0.0067024607766500536588 0.0067024607650929598351 -0.022886068996109600049 -0.0073102996898909223047 0.0027158438363497753622 0.00051234182944371448303 -0.0027979733160085271115 0.012197887371409163113 0 0 -0.0017861871650018512191 -0.0017861756618077749038 0.0014116904468272364025 0.0014116905657242037608 0.010246791064192231277 0.0005267962352507662982 0.0003275258265739466098;0 -0.0020514248874583256195 0.0044131631380918880797 0.0044131588106275237982 -0.0061295608696972179313 -0.0061295609724290626638 -0.018519331199130847215 -0.019426036600799338055 -0.014038411682170471792 -0.0043980777805997465363 -0.00017947542225366070563 0.0044342054710704336198 0.0044342032114093182793 -0.0045443315449367723338 -0.0045443316828067108898 0.0013058704303609345969 -0.0034120201827199225092 -0.0042390624834252946251 -0.0011967408207890508319 -0.0017563626941201309749 -0.00039416198320202611117 -0.00039416285742000151983 -0.00075161764020240226427 -0.00075161753523466680576 -0.013488724703247413975 -0.0063260622329363936159 -0.003428949726849856057 0 0 0.0061278872441366183041 0.0061278960551238324458 -0.006294074298775755201 -0.0062940743562382344203 -0.0030148124671085341046 -0.0067675223610491079193 -0.0068041983362338463379 -0.0035768199799067670192 -0.0033937514793837991224 -0.0028386910294327847258 0.0034446982916216499493 0.0034446982853747489493 -0.012395142940186936603 -0.0040457397307797574731 0.0013356997505344679958 0.00049639180710055381442 -0.0013715136019519598345 0.0067175107142895835316 0 0 -0.0012260333096507862027 -0.0012260270684996332421 0.0010224534069607962156 0.0010224534714240074602 0.0056607186042345412208 0.00051339555701687895114 0.00042493958503820651075;0 -0.0026003849001352955829 0.0056762161419317263417 0.0056762105923800132076 -0.0078736597888024884712 -0.0078736599204476051539 -0.02372955137550247437 -0.02489539325756605706 -0.017998722383689894078 -0.0056195153406310037122 -0.00021798335565610809663 0.0056802857242686938255 0.0056802828292214328776 -0.0058192098381301691004 -0.0058192100147970160506 0.0016979337150343635273 -0.0043591865639337739474 -0.0054233513075549215007 -0.001510977888345066281 -0.0022323217458378495984 -0.00051054716017482693665 -0.00051054828079269258274 -0.00095154526603714504294 -0.00095154513153114105191 -0.017245057914649152692 -0.0080769875870184155292 -0.004372423466504769124 0 0 0.0078419001160015874147 0.0078419114314006756195 -0.0080541381034888760715 -0.0080541381774004387056 -0.0038420163372683635919 -0.0086550046453775179162 -0.008704563251770915111 -0.004523148089240014956 -0.004409381727231360612 -0.0036965701239463268774 0.0044504877437563103784 0.0044504877357507428154 -0.015878679780008776029 -0.0051649036869092848634 0.0017389765786190590664 0.00059213643747617382765 -0.0017860240146392487859 0.0085833978163900800928 0 0 -0.0015194715247474821149 -0.0015194635310899072718 0.0012588096749424244891 0.0012588097575065228424 0.0072297570562146343601 0.00061248423424612114321 0.00049534851889631659541;0 0.0023254664401751172671 -0.0050421529251973235333 -0.0050421479888809730627 0.0069982828041509608646 0.0069982829212906199484 0.021115257337699019913 0.022151233089184169806 0.016011588268755132941 0.0050069749370336867275 0.00019884988682520579259 -0.0050551547309411627024 -0.0050551521546723064693 0.0051796643152488804421 0.0051796644724518298847 -0.0015008511303280889105 0.0038841925620255084509 0.0048293258718637788532 0.0013537325858434515104 0.0019938403905565100713 0.00045191602092489551162 0.00045191701790232993111 0.00085161442103929641326 0.00085161430135279264989 0.015361397687784508759 0.0071992718696503700884 0.0038996573541060187626 0 0 -0.0069819509795239331068 -0.0069819610377852671726 0.0071710936774696714194 0.0071710937431231601413 0.0034270954197322877829 0.0077081012045736776311 0.0077511677056444931375 0.0040497885363577719106 0.0038982246610806130412 0.003264595044029334342 -0.0039451560350756169002 -0.0039451560279523236255 0.014130889737395312122 0.0046036200579307132857 -0.0015362607052503648476 -0.0005450423112597477162 0.0015778682604179665536 -0.0076474993647603602479 0 0 0.0013734515521096385317 0.0013734444374471550289 -0.0011414191293909966857 -0.001141419202872535248 -0.0064429612888907295681 -0.00056376861937307645462 -0.00046113881173059679012;0 -0.003534984458001875704 0.0083851094281372426376 0.0083851013610855527902 -0.0115494894105580264 -0.011549489601090019361 -0.03433786741748634519 -0.036052247089085567855 -0.026127301776941634637 -0.0080020782022961495922 -0.000219143427383343436 0.008206071352793498086 0.0082060671673680699728 -0.0083894849058341290637 -0.0083894851615042027176 0.002655102064934598393 -0.0062036527121963700587 -0.0077789428571175050706 -0.0020051239047095413721 -0.0030839989681783726641 -0.0007878076830793510725 -0.00078780930833541860416 -0.0012780412437630400777 -0.0012780410491100768419 -0.024633763558519733428 -0.01144629958998376329 -0.0061482888030947669203 0 0 0.011268232422887079075 0.011268249006237988571 -0.011569642650964731545 -0.011569642760208031715 -0.0053932855125516437553 -0.012392536983292484765 -0.012484831618759760496 -0.0060434062565710659071 -0.00688236036181336195 -0.0058378698657488899831 0.0067344329822951473977 0.0067344329707050409189 -0.022949531372788909561 -0.0073242506935316522773 0.0027332350964889757551 0.00049790005404911339727 -0.0028169459452625348651 0.012223120767308951265 0 0 -0.0017723280422388240814 -0.0017723165077422073452 0.001396839874799891577 0.0013968399940201795158 0.010266893848174066597 0.00051157215609968858215 0.00031037802460876786573;0 0.0028833519004086705095 -0.006525562008003730867 -0.0065255556738713395293 0.009023459066383993088 0.0090234592163753180039 0.027027463181920268614 0.028368554300620352215 0.020531783293646421046 0.0063564890405976752843 0.00021460404035707956972 -0.0064663331534620055799 -0.0064663298568735250865 0.0066184209858804830123 0.0066184211871553365672 -0.002003637681297124138 0.0049295060572185616515 0.0061542266964897092765 0.0016586684408445915954 0.0024921358830612455777 0.00059608515724581315458 0.00059608643488769368513 0.0010526886320754110828 0.0010526884788410446978 0.019537773686903781717 0.0091212868445874617507 0.0049225635369553513015 0 0 -0.0089026280079475116763 -0.0089026409671054389933 0.0091423770852070186665 0.0091423771701886653862 0.0043148685002997646393 0.0098102806034430101861 0.0098740783051259970599 0.0049859586474982195078 0.0051884077294169338862 0.0043720513885055940773 -0.0051711077136910180499 -0.0051711077045681385148 0.018076381535153281804 0.0058294647769501330495 -0.0020580832934492757774 -0.00055301237952088148821 0.0021189926125799495374 -0.0097072551070047554539 0 0 0.0015884670393140523214 0.0015884579415130963692 -0.0012920293161445832626 -0.0012920294100800266707 -0.0081685313170847297093 -0.00057162092978172004618 -0.00042803666339109272976;0 0.0024940947520218294427 -0.0055330923518064406216 -0.005533086959920168954 0.0076642361906487117135 0.0076642363184602456394 0.023032419586613672724 0.024170535274684622207 0.017483290755536812222 0.0054378562266392694441 0.00019851986515398680941 -0.0055126092703747606866 -0.0055126064605116502707 0.0056450751658764369845 0.0056450753373935517315 -0.0016752658501828854645 0.0042177093209779647348 0.0052556294265021464771 0.0014428936467542163684 0.0021475043026836005723 0.00050026600385099349606 0.00050026709204723429549 0.00091282645815564432759 0.00091282632757646545597 0.016701374535842371943 0.0078117604829290128096 0.0042235579704083701588 0 0 -0.0075997127549936802082 -0.0075997237648111814687 0.0078049472587786916308 0.0078049473308276383007 0.0037042455540513053759 0.0083816747806672257243 0.0084327038180601245759 0.0043293338551457947669 0.0043405680607432580234 0.0036469839110824298946 -0.0043588054750604079968 -0.0043588054672871025599 0.01540902102248041701 0.0049923199178946130183 -0.001718344332531444342 -0.00052926572610560056794 0.0017681713811831805284 -0.0083041788611651103091 0 0 0.0014222595709762256549 0.0014222518129605177251 -0.0011693732804496086587 -0.0011693733605429436177 -0.0069924934360793408392 -0.00054746496765632280193 -0.00043017982401755198952;0 -0.00054374626204893757031 0.0011107019086846255541 0.0011107008075402066347 -0.0015500247163026674609 -0.0015500247425053131998 -0.0047275497933804127432 -0.0049546021618925876681 -0.0035746970781905303832 -0.0011338654475141847402 -5.4597150655683301381e-05 0.001132441403174812419 0.0011324408262696145436 -0.0011621430379514931068 -0.0011621430731206883538 0.00031519314094750308826 -0.00087993299728352186804 -0.0010877023218445660419 -0.00032145075711179901595 -0.00046134458769310889232 -9.767241907273926146e-05 -9.7672641912227795295e-05 -0.00019884656017392227643 -0.00019884653339426422262 -0.0034680307559161994112 -0.0016333519496001661954 -0.00088874610510602353956 0 0 0.0015720227715514368486 0.0015720250029897422494 -0.0016149592049412538671 -0.001614959219405312724 -0.00078610286273681070565 -0.0017401533890947858303 -0.0017475593490898784065 -0.00095318284459763402781 -0.00082602745990987072339 -0.00068546375140781366266 0.00085323615837139526324 0.0008532361567786600964 -0.0031666640793700127562 -0.0010469504386501642026 0.00032047853545993693243 0.00015705620627027333156 -0.00032751162695597325078 0.0017325721647202621013 0 0 -0.00034775918666686642805 -0.00034775759287741293303 0.0002957036626804963853 0.00029570367916780074561 0.0014613121452314579204 0.00016208231745902290698 0.00014191500759009676304;0 0.0027977801628904712221 -0.0064063499136611801177 -0.0064063437095145669975 0.008849814939681571388 0.0088498150865181281904 0.02645387529660500267 0.027771833834468899471 0.020106933561342309885 0.0062080880555643851854 0.00019939489214332363509 -0.0063284309331096081502 -0.0063284277066044834423 0.0064753449307638670865 0.0064753451278018988105 -0.0019834253173923893122 0.0048138863777697658494 0.0060167282725453836642 0.0016041625033174123933 0.0024236057770859330447 0.00058746419570777073417 0.00058746544665284243861 0.0010213610988328044975 0.0010213609488295321073 0.019092779048418394988 0.00890468092017628228 0.0048012106118737315694 0 0 -0.0087038914474900294649 -0.0087039041537362391715 0.0089379227391324766322 0.0089379228225648556933 0.0042027655297116805685 0.0095863339228051177437 0.0096511769866815168978 0.0048297417844902533826 0.0051281676258981660765 0.0043277181590775223516 -0.0050933085162166722229 -0.0050933085072849002342 0.017690483469979832731 0.0056888876056018465588 -0.0020392149297672242797 -0.00050401978633781818317 0.0021028621219426756224 -0.0094788046675383513806 0 0 0.0015114454914482589737 0.0015114365873090316022 -0.0012213877260574483152 -0.0012213878179635382585 -0.0079745511938271156777 -0.00052067064782844625637 -0.00037720765899266963262;0 -0.0035669659214625118286 0.0082899004828385636223 0.0082898924764997928422 -0.01143761313294125101 -0.01143761332222902917 -0.034119104795508621575 -0.035813949072755341119 -0.02593938496794723908 -0.0079818548896151021027 -0.00024116520355799213023 0.008156356268618823388 0.0081563521091293257614 -0.0083428864529966114544 -0.0083428867070000356509 0.0025896373414775459947 -0.006189041313171541811 -0.007745504808093246242 -0.0020356365248849332163 -0.0030992703204217653991 -0.00077176138367833339339 -0.00077176299765525512193 -0.0012925803065260842335 -0.0012925801131346643848 -0.024550229618455442909 -0.011429154873528982184 -0.0061503997954592644001 0 0 0.011216722289667477655 0.011216738717080754553 -0.011517603997369072269 -0.011517604105356422234 -0.0054014849807631241593 -0.012346792496431332337 -0.012433353353799312183 -0.0061237938551883964317 -0.0067214239823914371033 -0.0056867637111548182544 0.0066208491430607653225 0.0066208491315475886257 -0.022808734216224785252 -0.0073137248881991936272 0.0026628211592499878742 0.00057990456937304308074 -0.0027385103000639051361 0.012194559629500509659 0 0 -0.0018619211741881429648 -0.0018619097080215610013 0.0014885064877314603711 0.0014885066062578511132 0.010248462009228244754 0.00059772454179854656378 0.00040501738908147464149;0 -0.0037520252670197899378 0.0091982906532426036983 0.0091982818568154284949 -0.012636030179433953291 -0.012636030386810898768 -0.037379996055549584433 -0.039252865233667826039 -0.028472408384028490697 -0.008655371025265517354 -0.00019846420711233173626 0.0089256821612073797972 0.0089256776074388144426 -0.0091179838260689489993 -0.0091179841043496304837 0.0029722418820596167854 -0.0067085710271668833049 -0.008437804376654745725 -0.0021061479343935235464 -0.0032957417426953275821 -0.00088179594252308225559 -0.00088179771333396451613 -0.0013451435910536541866 -0.0013451433791860608388 -0.026672957317154070978 -0.012351665218055586995 -0.0066117478010198054567 0 0 0.01223538903032910137 0.012235407173168190084 -0.012561095565083172515 -0.012561095684964936753 -0.0058051894053663694734 -0.013437512692660498817 -0.013546468742271035313 -0.0063546379329644398642 -0.0077119161702043645748 -0.0065693283082671116366 0.0074533130700121814211 0.0074533130573961482029 -0.02497154131698879273 -0.0079132367575686247269 0.0030623271212825505135 0.00038746723613076338886 -0.0031618355659651258861 0.013221896213852625188 0 0 -0.0017419582518501228359 -0.0017419457146523884342 0.0013340873675975971867 0.0013340874972980708551 0.011091875115236278157 0.0003934214186187844119 0.00016002454542018138862;0 -0.003719983383819799351 0.0089753927284619144933 0.0089753841202914602659 -0.012345532035823053932 -0.012345532238933237118 -0.036610941283949850755 -0.038440577776639700547 -0.02787095966258976501 -0.0085032180064202895348 -0.00021348958138047138193 0.0087449734604430635204 0.0087449689993920800418 -0.0089368223425315383712 -0.0089368226150835002736 0.0028718299065050578722 -0.0065914412311580232451 -0.0082781111674737131723 -0.0020987557786513303705 -0.0032568070173614994088 -0.00085300886602147191727 -0.00085301059963857270296 -0.0013381816686434690709 -0.001338181461133635319 -0.026188903520483100551 -0.012146871225204877373 -0.0065125118847902353433 0 0 0.011999188142489800382 0.011999205869721259188 -0.012319338644450885875 -0.012319338761408000008 -0.0057186177068176994795 -0.013187070289396573067 -0.013289657497863134258 -0.0063273895881249412124 -0.0074523734864593181235 -0.0063359327689635766903 0.0072422159033535158865 0.0072422158909978794072 -0.02446242470397095442 -0.0077790676897635706658 0.0029574327219837256986 0.00045142290871930405762 -0.0030491096923148932815 0.01299042272740876143 0 0 -0.0017928148990974217269 -0.0017928026127909738041 0.0013929836176691172238 0.0013929837447446355176 0.010903347129960666226 0.00046146572082840210888 0.00023932895237147846969;0 2.1554580550467221064e-05 -4.3866130826675085079e-05 -4.386608730077803291e-05 6.1238085337284492481e-05 6.1238086373183316883e-05 0.00018690042277255875837 0.00019586664369492662319 0.00014129961176925618814 4.4859722331703672546e-05 2.1834786745541770982e-06 -4.4771860525556541883e-05 -4.4771837716492496827e-05 4.5950367669883666324e-05 4.5950369060249665197e-05 -1.24139899562062818e-05 3.4811206436750956284e-05 4.3016578995765418015e-05 1.2750583478059384572e-05 1.8273757381921867189e-05 3.8554399227444980676e-06 3.8554487321140814974e-06 7.8778105510814600432e-06 7.8778094923587230138e-06 0.00013717187770584220174 6.4620899504783932193e-05 3.5169703613038250339e-05 0 0 -6.216970400076222091e-05 -6.2169792176462496287e-05 6.3868609591014431854e-05 6.3868610162322027269e-05 3.1121619280781510669e-05 6.8829958735638907541e-05 6.9117469409115495993e-05 3.778801532044273419e-05 3.2549035192974365037e-05 2.6994390057971388483e-05 -3.3660504541258273173e-05 -3.366050447829041308e-05 0.00012520227196147686944 4.1429492529695589203e-05 -1.2614720573063577117e-05 -6.2905124831703610095e-06 1.2886903211865107064e-05 -6.8546976318780545277e-05 0 0 1.3841572293453802069e-05 1.3841509278990939125e-05 -1.1783106845538864624e-05 -1.1783107497478128374e-05 -5.7816926957704662575e-05 -6.4893500201927665247e-06 -5.6988758724878023717e-06;0 -0.0030916031090634740232 0.0072225818967924541522 0.007222574928815100187 -0.0099606594501940610292 -0.0099606596149315468347 -0.029678946295987541221 -0.031162446801208002617 -0.022574584632428625064 -0.0069379271085926869089 -0.00020383931733283531325 0.007096861215454307488 0.0070968575965023308547 -0.0072580455569831664811 -0.0072580457780383337077 0.0022660455641234302122 -0.0053790235759092587878 -0.0067357572257261463106 -0.0017621024080595440366 -0.0026887725247201491388 -0.00066984140188204046272 -0.00066984280609537060359 -0.0011246198145479792928 -0.0011246196462597285535 -0.021352406319348794794 -0.0099389789743438271968 -0.0053484458962200333645 0 0 0.0097488068038840310081 0.0097488211029222379689 -0.010010189577627549157 -0.010010189671705371078 -0.004681365618354383154 -0.010728081641875083022 -0.01080503978620682079 -0.0053127301506513419788 -0.0058591114394362046186 -0.0049583662995193030984 0.0057752815777549742354 0.005775281567733750801 -0.019841500248105905374 -0.0063518062883891925063 0.0023322617761710163174 0.00049045501095158912895 -0.0024066024524180651238 0.010593570791307630602 0 0 -0.0016060774157334979997 -0.0016060674337842716086 0.0012810360378078854485 0.001281036140869790162 0.0089059409298216513085 0.00050556373225705544469 0.00033787955278616701484;0 0.0016041623861298957582 -0.0033730349385233501965 -0.0033730316151883142119 0.0046945875991697928395 0.0046945876781481002404 0.014242080324283867832 0.014933890793464884086 0.010784507669523376444 0.0033970560953961478727 0.00014957280863411523148 -0.0034108593123625850427 -0.0034108575744641951751 0.0034976458671640698987 0.0034976459731614205524 -0.00098034952131692337449 0.0026358363223628459605 0.0032674665515350777116 0.00094142853550850246359 0.0013678534560882897857 0.0002989545602317706806 0.00029895523210591602985 0.00058759047667508116503 0.00058759039596978910637 0.010406671889423343286 0.0048899413326847001801 0.002655192147211725244 0 0 -0.0047227175828064033719 -0.0047227243351179318612 0.0048511978693377743113 0.0048511979132579863966 0.0023400252743679831116 0.0052209819078706592652 0.0052466289895408673577 0.0028045111738431590352 0.0025557965839976188628 0.0021304338311939692747 -0.0026145216241902132642 -0.0026145216193884158497 0.0095355674291024133254 0.0031298996792184950386 -0.0010003035361079587202 -0.00042212338198725540871 0.0010252148407600884892 -0.0051894365670867555543 0 0 0.00098941367931223728888 0.00098940887846634848965 -0.00083272937125518353956 -0.00083272942086970891829 -0.0043750460860822893566 -0.00043627261467430497165 -0.00037150038268682502272;0 -0.003357259044815521544 0.0079930690021854777089 0.0079930613179423244674 -0.011006143492357244734 -0.011006143673835294336 -0.032698401887624621576 -0.034336007970178689108 -0.024886559984733432754 -0.0076155216379510991612 -0.00020427368332881612576 0.0078150685062854993029 0.0078150645203588688797 -0.0079889251773635032439 -0.007988925420881648129 0.0025380307490028056715 -0.005903611893766948053 -0.0074056398334355353144 -0.0019024069519541397973 -0.0029310220437042456589 -0.00075020460435566748217 -0.00075020615220897405532 -0.0012156556181759775852 -0.0012156554327835745501 -0.023451435408126389964 -0.010894793176367007642 -0.0058512876131274309255 0 0 0.010724840798003303435 0.010724856597452651213 -0.011011603536742454318 -0.011011603640876548027 -0.0051245927080822706312 -0.01179281816372325549 -0.011881845459909147478 -0.0057403031317246003967 -0.0065674521830233921135 -0.0055722652684815961871 0.0064253700496547348775 0.006425370038614668447 -0.021854027490897268843 -0.0069672766421677856385 0.0026140005646870384526 0.00046179819163130476347 -0.0026983462962205514643 0.011629492017573255305 0 0 -0.0016745687828603847847 -0.0016745577954957464439 0.0013169176144595172526 0.0013169177279640307664 0.0097693156702803474883 0.00047431450049928479754 0.00028224388455817464713;0 0.003413799397133631449 -0.0087144226308139491333 -0.0087144143577190628924 0.011933629715333007523 0.01193362991003913201 0.035069276583849506856 0.036851410283638939835 0.026761340668659202441 0.0080614113361921931056 0.00013900127721254299309 -0.0083717110474190985919 -0.0083717067757118346361 0.0085434896306289566381 0.008543489891904648692 -0.0028877856307448373542 0.0062455122794243499162 0.0078862894837602535297 0.001891854779438911522 0.0030241507242755737324 0.00084601534113730003216 0.00084601700446417405378 0.001221586656192584627 0.0012215864573091022444 0.024893309862843712027 0.011486957231222819434 0.0061283093953770533327 0 0 -0.011433904889285820272 -0.011433922009395679556 0.011736671357534450566 0.011736671471147460191 0.0053523313084740675727 0.012535019424868107385 0.012648070464283915973 0.0057355149694783072456 0.0074532179745344217386 0.0063748203498994486169 -0.0071325933529862595855 -0.0071325933411373722629 0.023422091151889000427 0.007351754398868141048 -0.0029816462192725737453 -0.00019987608067534209369 0.0031025417887535914133 -0.012300963789601142978 0 0 0.0014420208986573768324 0.0014420091360904181872 -0.0010596247245355930929 -0.0010596248460697224245 -0.010313096028774585908 -0.00019558822796425718357 3.5905521261405434329e-05;0 -0.0025267560630832940245 0.0055370575848051207385 0.0055370521756304726113 -0.0076779849081820934417 -0.0076779850364756679904 -0.023123590687289145157 -0.024261437530354444669 -0.017542501357509971555 -0.0054720368387151264306 -0.00020922891794456711565 0.0055351075827922936387 0.0055351047616826448 -0.0056699049804161344782 -0.0056699051525839977775 0.0016612357827120289265 -0.0042446468181784229382 -0.0052828756557663164931 -0.0014666737826046151623 -0.0021706655057712885733 -0.00049853422281355809845 -0.0004985353149375748626 -0.00092479495683825798172 -0.00092479482575954098222 -0.016796085412292570405 -0.0078642383087578777295 -0.0042560442335112733114 0 0 0.0076387063264226730611 0.0076387173593180862988 -0.0078453372799695830775 -0.0078453373520689269338 -0.0037376747081919125225 -0.0084292632476354410059 -0.0084782808568131806659 -0.0043932248766778043969 -0.0043110914969295074939 -0.0036160676042282444143 0.0043462915896284957246 0.0043462915818265144413 -0.015472470638730164566 -0.0050279016915312883806 0.001702051622410881513 0.00056613712649466931687 -0.001749096303240573174 0.0083575712560640079418 0 0 -0.0014681875683108234522 -0.0014681797787329496641 0.001214203435757045535 0.0012142035162010806487 0.0070391733862089347559 0.0005856194041932003989 0.00047064491818198794923;0 0.0022427418990948553429 -0.0048342342532224020016 -0.0048342295147426120328 0.0067132208025290109055 0.0067132209150056179267 0.02027614628571458924 0.021269127348914219217 0.015371222252772036299 0.0048134114595090836397 0.00019513541814016491607 -0.0048546143766894263305 -0.0048546119027291483733 0.0049749376225984671615 0.0049749377735454078722 -0.0014325387350935892081 0.0037341908301202443241 0.0046401805336146071876 0.0013076335024346970315 0.0019208521881977943906 0.00043230956701162300817 0.00043231052421202132482 0.00082142170568355414844 0.00082142159075899339512 0.014763431832694474607 0.0069225411009119618838 0.0037515412807173848311 0 0 -0.0067081395774876090635 -0.0067081492273365793053 0.0068900116163981336287 0.0068900116793440104382 0.0032986021165962052179 0.0074077314622463356908 0.0074481664504385397541 0.0039088488748257738115 0.0037231863078940599307 0.0031152861128182444267 -0.0037757509981945791035 -0.003775750991355073579 0.013570502126909593857 0.0044273690175287167686 -0.0014655026831958829336 -0.00053823958120572821997 0.0015045742712287723565 -0.0073521029823142517584 0 0 0.0013361142909622336986 0.0013361074584057159535 -0.0011132523553503360838 -0.0011132524259254933472 -0.0061949456164886443008 -0.00055668040794881279518 -0.00045934911152742185581;0 0.0013491147838031515051 -0.0028040023857243958835 -0.0028039996162138249199 0.003906774880565980386 0.0039067749464175563143 0.011877285211320301114 0.012451702309103390709 0.0089887225898400580776 0.002839274925495526708 0.00012969378892890157042 -0.0028447746269727783829 -0.0028447731776062253929 0.0029180472476386235849 0.002918047336020905113 -0.00080731897640402513518 0.0022031990244949484735 0.0027280561697510508599 0.00079409984046882977401 0.0011480521044639996169 0.00024768303476456390161 0.00024768359489433751982 0.00049392027560777327158 0.00049392020831235988916 0.0086925513154969113322 0.004088344665573161521 0.0022218283348450743216 0 0 -0.0039429073536749476708 -0.0039429129747987588794 0.0040503437170438328155 0.0040503437535559846244 0.0019608129568817866256 0.0043611758289266574704 0.0043814584710608339702 0.0023613644715608393329 0.0021087850681427758835 0.0017546869177695698528 -0.0021656799536081280076 -0.0021656799496047717674 0.0079536531018687892103 0.0026182062067460981983 -0.00082263454006644483752 -0.0003691053331244681119 0.00084219702978805975526 -0.0043377853389287056654 0 0 0.00084467612141687410145 0.0008446721174398778972 -0.00071396050835826881196 -0.00071396054975254440601 -0.0036577508368439677969 -0.00038127733435303030407 -0.00032861295275365233004;0 -0.0031965082123130107369 0.00738437031313245347 0.0073843631736233003235 -0.010193319867911837182 -0.010193320036787687985 -0.030430569249824773043 -0.031945606510032531489 -0.023134221076195008587 -0.0071283454637045906913 -0.00022068286226917426039 0.0072772515598620119912 0.0072772478491404789941 -0.0074446534463968394926 -0.0074446536730082757058 0.0022989116976048747445 -0.0055272782651214335398 -0.0069138383923809561271 -0.0018277889490182057126 -0.002773916367089872357 -0.00068239648624173095126 -0.00068239792555057038163 -0.001162906186053123004 -0.0011629060135279279189 -0.021926020668388227636 -0.010215734042868187051 -0.005502283284887638827 0 0 0.01000659596502192876 0.010006610601925850293 -0.010275289834823219184 -0.010275289931003741065 -0.004822714936801851017 -0.01101722135398484903 -0.01109348009753159843 -0.0055024977177862118352 -0.0059532006301120489813 -0.0050312078143018978266 0.0058866043107295524736 0.0058866043004574359829 -0.020346205303390603458 -0.0065310470830505437667 0.0023641401678008724073 0.00054355446229708127923 -0.0024353069622089960032 0.010886723450206976793 0 0 -0.0016941083028564516647 -0.0016940980677796638274 0.0013607500364221124852 0.0013607501421331301156 0.0091541691846866203586 0.00056092082954430110605 0.00039214755597073475309;0 -8.9850558857513084378e-05 0.00018290658338505509433 0.00018290640191622069602 -0.00025533525561789494106 -0.00025533525993675141143 -0.00077927087883788168435 -0.00081664370689029416438 -0.00058913573423513066526 -0.00018702466550152930863 -9.0975082413043578564e-06 0.00018667064360561929303 0.00018667054851051348516 -0.00019158413689238193867 -0.00019158414268919464842 5.1753872308147017857e-05 -0.00014514201801865908863 -0.00017935240854344226737 -5.3162337517524701851e-05 -7.6189727214447675388e-05 -1.6071996198600993169e-05 -1.6072032927047350979e-05 -3.2848293625596399587e-05 -3.2848289211548096556e-05 -0.00057191760519517253342 -0.00026942982183736889504 -0.00014663777664364419724 0 0 0.00025921206408935896668 0.00025921243171788565423 -0.00026629522938247904588 -0.00026629523176442671233 -0.0001297640668825772621 -0.00028698026479791411206 -0.00028817902249355113655 -0.0001575485078657225702 -0.00013572806657915923107 -0.00011257035863992849304 0.00014035735038394134147 0.00014035735012142542101 -0.00052200917004654036162 -0.00017273385344630210153 5.2597832787500965171e-05 2.6218601953172415876e-05 -5.3731087064538878223e-05 0.00028578748437549795613 0 0 -5.7697750090313985037e-05 -5.7697487375669532855e-05 4.9116268794703057086e-05 4.9116271512783049938e-05 0.00024105270979840113491 2.7051794540488065483e-05 2.3753181884672766713e-05;0 0.0033422082148909164172 -0.0081182525720592257912 -0.0081182447963591888168 0.01116045210739859822 0.011160452290857958771 0.033049954620805233052 0.034713334145518109919 0.02517433729227382469 0.0076685428512445648341 0.00018445948509800339627 -0.0078966975797388431341 -0.0078966935516583576515 0.0080683892118659054915 0.0080683894580413119402 -0.0026110611238365165863 0.0059436337009312716073 0.0074700982249476764741 0.0018822646351444646123 0.0029298254325339245265 0.00076882277148388215512 0.00076882433686118324505 0.0012072130065473880151 0.0012072128191400971573 0.023634650341484784997 0.010959349785203643599 0.0058752123481720913006 0 0 -0.010820856596365953373 -0.01082087261316245011 0.011109390877862092284 0.011109390983644870654 0.0051393521489339656638 0.011888122372547719335 0.011982963324180678083 0.0056895351222515065659 0.0067482495403901644748 0.0057393536305548149487 -0.0065608684614285742512 -0.0065608684502668056931 0.02208436727140023273 0.007008460894999594612 -0.0026918210719919944546 -0.00038663866678237878913 0.0027851502280682926757 -0.011707641209841827476 0 0 0.0015973696082970606849 0.0015973585074493667092 -0.0012361600807075556925 -0.0012361601953719252717 -0.0098298016197247220505 -0.00039490597392782041813 -0.00019402439612190559262;0 -0.0034413957591054615201 0.0081484400094145332388 0.0081484321675847851824 -0.011225139905858032979 -0.011225140091098304018 -0.033380843926967190827 -0.035048721871666743688 -0.025398960059541952905 -0.0077821458706827375748 -0.00021483785783757747864 0.007978282708092396952 0.0079782786389946264149 -0.0081569189515452254075 -0.0081569192001133879882 0.0025776643710840488159 -0.0060331525637722501973 -0.0075640253974222229974 -0.001953223480785273164 -0.0030012000915586975643 -0.00076382110528239307787 -0.00076382268518117323909 -0.0012458223708375630763 -0.0012458221815950880872 -0.023957153292710593739 -0.011134691960887203518 -0.0059825627037257949475 0 0 0.010954879069955368587 0.01095489518632314363 -0.011247999312817696937 -0.011247999418973593511 -0.0052444896177517947786 -0.012048727485238729801 -0.012138148027595749984 -0.0058886047643670535665 -0.0066767997164940279253 -0.0056616849429137203545 0.0065408235741736360166 0.0065408235629052522211 -0.02231098741494075624 -0.0071226146400866861136 0.0026537068399619615638 0.00049268045171136178907 -0.0027362308449938935184 0.011885877112200586916 0 0 -0.0017340389247425312767 -0.0017340277087745346873 0.0013689077042177764769 0.0013689078201139402366 0.009985232232548440709 0.00050650296861485177499 0.00031196054158133524042;0 0.0030933478452303477153 -0.0070890097408041231886 -0.0070890028763546117721 0.0097921931672863213314 0.0097921933297260201762 0.029270686311957328646 0.030726093248396840751 0.022246015113205262065 0.0068673209875329214308 0.00022011105825500644397 -0.0070011086782429668082 -0.0070011051085952253487 0.0071635663083011759389 0.0071635665262775429299 -0.0021951915163889701953 0.0053251891602784061364 0.0066560433420667147394 0.001772990626410346016 0.0026801636280316411785 0.00065214280881044351095 0.00065214419296015968715 0.0011269749465438788551 0.0011269747805932267635 0.021117202581235665348 0.0098466260492575518465 0.0053076096103357442088 0 0 -0.009631544119442005461 -0.0096315581811937823337 0.0098904622998790964195 0.0098904623922067887859 0.0046521699373741221689 0.010607889215761202861 0.010679581334655309163 0.0053345534332177833858 0.0056845148651093269435 0.0047987322540398048148 -0.0056381554900172018915 -0.0056381554801367929006 0.019572991597362872362 0.0062942101876088526677 -0.0022565063169804550416 -0.00055246543697362647616 0.002323873138220872419 -0.010487851240285762933 0 0 0.0016649334648413747616 0.0016649236167804361969 -0.0013441296772649601564 -0.0013441297789660217911 -0.0088213464144586660465 -0.00057055421870764967338 -0.0004108797632274986786;0 -0.002633190100088730369 0.005812624971922858777 0.0058126193018854417638 -0.0080549413410013984832 -0.0080549414754334594524 -0.024228475627576514378 -0.02542303188845691439 -0.018386416104435691909 -0.0057254660588934537177 -0.0002130999244386480682 0.0057989461309533151673 0.0057989431751970556272 -0.0059390673562807671723 -0.005939067536683858943 0.0017532758971608407295 -0.0044409938630829114137 -0.0055311266481408308607 -0.0015253882269113342579 -0.0022651807422315694933 -0.0005250216452389701912 -0.00052502278977795385339 -0.00096329732831077277688 -0.00096329719096314981013 -0.017579563675197855399 -0.008225692189426056164 -0.0044488836895744043529 0 0 0.0079984433855708452626 0.007998454958584198457 -0.0082145868613736090086 -0.0082145869370628208511 -0.0039052431326247003668 -0.0088234284028363176022 -0.0088761189225609500586 -0.0045729484149023454098 -0.0045474695427031091785 -0.003818423455129040401 0.0045725751902873966806 0.0045725751821117967266 -0.016210040671886343649 -0.0052584259440668435284 0.001797469982571783375 0.00057104059261353363845 -0.0018478795478312618795 0.00874444093513774591 0 0 -0.0015124220984494090268 -0.001512413938011229449 0.0012463879318651656034 0.0012463880161341972432 0.0073635307326890683463 0.00059066903179967405156 0.00046833364088552604859;0 0.0033651458488217276914 -0.0079519269807967699754 -0.0079519193253323183779 0.01095621539353673797 0.01095621557440098863 0.032589926769683710828 0.034218994780598914474 0.024796422666560982012 0.007600974606911978064 0.00021178437812081261872 -0.00779001001555999599 -0.0077900060426115847606 0.0079647897237572276574 0.0079647899664526781993 -0.0025125950296496675496 0.0058927297832179472911 0.0073866890074799716054 0.0019111960826371052636 0.002933475783918024736 0.00074387626642438524349 0.00074387780881710128655 0.001219520926323318594 0.0012195207415543773445 0.023399136892663974924 0.010878062305873697005 0.0058462477045916998175 0 0 -0.010696439434667292037 -0.010696455164114871544 0.010982737949288482251 0.010982738052880762838 0.0051226091436612020483 0.011765405209555265115 0.011852331472304578064 0.0057627699438121066447 0.0065048574480896965977 0.0055140861154797313204 -0.0063793339339798483742 -0.0063793339229775564148 0.021783319328943860638 0.0069567838958924351281 -0.00258676217158420544 -0.00048999011755208757377 0.0026679946504194872875 -0.011608254041490104896 0 0 0.0017042293378181428472 0.0017042183852357876798 -0.0013476589973137570282 -0.0013476591104648145622 -0.0097533767125875109327 -0.00050400399654623793781 -0.00031506502692086322311;0 0.0031141450870837248006 -0.0074274803626234149959 -0.0074274732248770817741 0.010225828240775749339 0.010225828409357191548 0.030366081560453311861 0.031891883184021120601 0.023116727413879392672 0.0070709569929338069935 0.00018749114113732179808 -0.0072589037192166165277 -0.007258900017099032681 0.0074199588632156577434 0.007419959089425479451 -0.0023623215664291597783 0.0054811309211214723561 0.0068772153214664375614 0.0017639861888204279826 0.0027196381690544916762 0.00069523095566595774237 0.0006952323932238306135 0.0011303129598496186939 0.0011303127876438330383 0.021780914250228752826 0.010119033653744159001 0.0054352327154356706862 0 0 -0.0099560106646372735495 -0.0099560253400044033956 0.010222192376605531219 0.010222192473367050156 0.0047511527501594014167 0.010946317512009032941 0.01102969205822893449 0.0053289757733967152778 0.0061000760683128044809 0.0051756109495341576579 -0.005972797443264002068 -0.0059727974330078233492 0.020296163701273774171 0.0064662722753640079765 -0.0024341686796583560798 -0.00042520492088287715907 0.0025171222092642215121 -0.010794348415192212692 0 0 0.0015525652782940563106 0.0015525550696302101855 -0.0012202722306119120552 -0.0012202723360001306065 -0.0090697151834422794908 -0.00043676474933813274389 -0.00025877011518127577628;0 0.0034408181687502997596 -0.0083069296653673005415 -0.0083069216998242680766 0.011425443872289282876 0.011425444060270980792 0.033870484353547565537 0.03557044059836775296 0.025791228543421262226 0.0078674036198010059012 0.00019609841376534833729 -0.0080927492235656275921 -0.0080927450955432991136 0.0082699948272185568043 0.0082699950794641614166 -0.0026608501786292925416 0.0060982238000532682648 0.0076597451686342011429 0.0019413215915569329711 0.003012553265217762094 0.00078576656578317359211 0.00078576816972840423953 0.0012423402297779136908 0.0012423400377425657809 0.024238955693162009958 0.011245002193213737146 0.0060309868953214102252 0 0 -0.011096680071596778244 -0.011096696471753157015 0.011392795537511987009 0.01139279564575019707 0.0052818396996904418486 0.012194484116525898532 0.012290018910966963098 0.0058621731230956500291 0.0068854176851435308984 0.0058524216725458341401 -0.0067028989490513874935 -0.0067028989376150946086 0.02263337565490507533 0.0071935826656671997617 -0.0027418872172112005586 -0.00041973396735990305215 0.0028329997199951304637 -0.012013818626786831531 0 0 0.0016640714324087063202 0.0016640600572289012803 -0.0012938943574702635366 -0.0012938944750076879914 -0.010087300737958056207 -0.00042945202465394851374 -0.0002252161614489627667;0 0.002904188090046379029 -0.0066008504095611429327 -0.0066008440076983669262 0.0091242462825303783519 0.0091242464340938120304 0.027309735505265515104 0.028666355073498867717 0.020749918345539953429 0.006417662205033790486 0.00021286622481361868061 -0.0065334479106171671273 -0.0065334445797047479773 0.0066863967799525268754 0.0066863969833358110478 -0.0020328153287580879097 0.0049767716896674885421 0.0062157790389278742144 0.0016686245278488432559 0.0025122083287388505268 0.00060409592821375826532 0.00060409721935251515547 0.0010599314735699365882 0.0010599313187312508783 0.019729432050461487291 0.0092071952174002033575 0.0049670792066116437047 0 0 -0.0089921501404516216566 -0.0089921632434228886827 0.0092341677926510573604 0.0092341678786149686969 0.0043527037755649060011 0.0099070968104949669319 0.0099724305129222333421 0.0050181959797408219257 0.005262384952230865498 0.0044369689476844217241 -0.0052371895683889883866 -0.0052371895591702532363 0.018264149504126962753 0.0058840993156090695346 -0.0020886925634547724891 -0.00054437103314682695407 0.0021512233363396231038 -0.0098003998313233656181 0 0 0.0015881031177398879321 0.0015880939257631289732 -0.0012886229604654666093 -0.001288623055370118238 -0.0082459564966564542765 -0.00056256516755379853186 -0.00041627031045399703413;0 0.0014127685877396252076 -0.0029439442931548649544 -0.0029439413870366928916 0.0041007700128140216547 0.0041007700819056308247 0.012461108000918111327 0.013064362563449954599 0.0094317655076539309855 0.0029773624417704768613 0.00013490105486626004206 -0.0029845496043131394294 -0.0029845480837104925928 0.0030612129013460592092 0.0030612129940763505367 -0.00084941616373302374857 0.0023103160125053368024 0.0028614191292268211127 0.0008310185843256462368 0.0012027608575425497578 0.00026023434755277017596 0.00026023493525885449526 0.00051729164391549266756 0.00051729157330995107194 0.0091165935233834677343 0.0042868867384556023914 0.0023292863478277352207 0 0 -0.0041356917111279147339 -0.0041356976109074485709 0.0042483409507774010094 0.0042483409891114322712 0.0020549937907123417072 0.0045738747865074350432 0.0045954153182329064362 0.0024721587238516161411 0.002217745981349062475 0.0018460928446380180795 -0.0022755940607284727388 -0.0022755940565280523454 0.0083442802919330375661 0.0027450155292788286192 -0.00086579898783059627311 -0.00038323905681304386078 0.00088661100610307826044 -0.0045486497860472187293 0 0 0.00088161212806037430462 0.00088160792732496265876 -0.00074448224959055935273 -0.00074448229301529505672 -0.0038354002226510513357 -0.0003959269328595126764 -0.00034035708621517752866;0 0.00019651783342910199293 -0.00040020314908593989951 -0.00040020275206326734897 0.00055865791747164168356 0.00055865792692039856464 0.001704873187780128448 0.0017866488847068037488 0.0012889240929280653021 0.00040913777118597262133 1.9879036325613728004e-05 -0.00040839323439282465295 -0.00040839302634621178377 0.00041913858526897678066 0.00041913859795119208463 -0.00011327454181059363721 0.0003175150735394059948 0.00039236887470035504248 0.00011626480284480353354 0.00016665137273094108314 3.5168468570682139115e-05 3.5168548925161326722e-05 7.1847803428257291623e-05 7.1847793771259027421e-05 0.0012511656139203009269 0.00058940578755682052504 0.00032077718452445567413 0 0 -0.00056707798335405847859 -0.00056707878768999487543 0.00058257298140322502211 0.0005825729866149411719 0.0002838503512017160257 0.00062781541189503250501 0.00063044338150825267753 0.00034457679580465972119 0.00029704897144395767117 0.00024638219366192814185 -0.00030714155633357055316 -0.00030714155575923938893 0.0011420330374045195663 0.00037786477695566088623 -0.00011512814516918274527 -5.7279689260175225933e-05 0.00011761370230147472039 -0.00062519102012320777219 0 0 0.0001261380477660931955 0.00012613747300599338413 -0.000107363955201592067 -0.00010736396114805050767 -0.00052732671861240498681 -5.9101761215460411664e-05 -5.187867400269569664e-05;0 0.0030555491429564013428 -0.0069718979018178741866 -0.0069718911450781188149 0.0096339754304261872309 0.009633975590352936158 0.028818375276736734464 0.030249970031054226188 0.021898539092997423849 0.0067668723568436069116 0.00022095391667929559134 -0.0068934799505485271423 -0.0068934764359069528386 0.0070542039057444024322 0.0070542041203496890986 -0.0021525118831138725754 0.0052474742090189091873 0.0065561920634433978536 0.0017535457592395657656 0.002645164660476904267 0.00063996307251029107763 0.00063996443510836462185 0.0011138343765263231024 0.0011138342131418029965 0.020804776365186180426 0.0097049457417208821741 0.0052333450632908338693 0 0 -0.0094862762530225370333 -0.0094862900882934208385 0.0097414450469337360294 0.0097414451377336175319 0.0045877324720558837132 0.010449847666179110095 0.01051951869614187185 0.0052740144184028215496 0.0055748113419694517168 0.0047032902983874247393 -0.0055380741486773868432 -0.0055380741389500012795 0.019271697734159279336 0.0062035524354614240625 -0.0022120340189818337752 -0.00055963699516314554042 0.0022775327115843349395 -0.010334535288189030527 0 0 0.0016578308262951387594 0.0016578211291270669725 -0.0013419147994382688797 -0.0013419148995792958608 -0.0086935972909447899182 -0.0005781484194297616553 -0.00042230863992280672989;0 -0.00020875986114815884252 0.00042513022940999893595 0.0004251298076571220102 -0.00059345496627194785876 -0.00059345497630926128708 -0.0018110660142771621995 -0.0018979359311274612756 -0.0013692085462030320359 -0.00043462306959430793956 -2.1117718706868549429e-05 0.00043383133768570998883 0.00043383111667998487497 -0.00044524602330159437696 -0.0004452460367737695753 0.00012033028306889008647 -0.00033729256730814376241 -0.00041680889367112062367 -0.0001235068857535733043 -0.00017703196031520175503 -3.7359182759582294851e-05 -3.7359268119261214783e-05 -7.6322989402914041259e-05 -7.632297914438956974e-05 -0.0013290989742842434715 -0.0006261189699955736071 -0.00034075785023903576963 0 0 0.00060240017725173911674 0.00060240103168867492611 -0.00061886034912157132735 -0.00061886035465791712322 -0.00030153071510423108768 -0.0006669209387906086103 -0.00066971257709578396224 -0.00036604052351456929952 -0.00031555013139331110697 -0.00026172732465643829903 0.00032627178056149694222 0.00032627177995138938313 -0.001213168646393954133 -0.00040140153932029714939 0.00012229891606706672644 6.0848372468119705776e-05 -0.00012493935613392984584 0.00066413387033410851285 0 0 -0.00013399607085164580802 -0.00013399546028982107647 0.00011405251335529926744 0.0001140525196721572064 0.00056017358936624457415 6.2783705171780531729e-05 5.511089065331537429e-05;0 -0.0038907837543057689766 0.0093387019181418243208 0.0093386929524844272676 -0.012850702294394587138 -0.012850702505966617867 -0.038146802446728876601 -0.04004602771102810238 -0.029030159644513237743 -0.0088675843066002048298 -0.00022959579623069202928 0.0091108556099517064991 0.0091108509621582074722 -0.0093120441813452185797 -0.0093120444652559659221 0.0029768728300654818258 -0.0068743472574913696421 -0.0086287117979193805883 -0.0021983867715324898959 -0.0034029060161733810236 -0.0008881187989800887108 -0.00088812060500800468765 -0.0013974327432894897375 -0.0013974325271197034562 -0.02729981786540939398 -0.012666194647756305602 -0.0067926183996107414656 0 0 0.012510792398993015456 0.012510810856714960071 -0.012844787744837594251 -0.012844787866529731521 -0.0059756162913896211999 -0.013752704110445424651 -0.013857811089717373548 -0.0066186370682600010815 -0.0077404037638516606096 -0.0065780519136249080564 0.0075256464060748113482 0.0075256463932053714594 -0.025488547098054203932 -0.0081169576593949476634 0.0030637208450756776498 0.00049133391673847250786 -0.0031527555951044051313 0.013551311501005580684 0 0 -0.0018909380743391906131 -0.0018909252770538018899 0.0014744344089817136741 0.0014744345414220902651 0.011372999727358444264 0.00050267430990823453764 0.00027226752840726539933;0 0.0020824732503243355286 -0.0045480406911366554404 -0.0045480362452110702914 0.0063084317165891246049 0.0063084318220605461319 0.019008664416534676311 0.01994428779661659018 0.014419597641013697994 0.0045014393607292783536 0.00017411882205147798434 -0.0045507280139349438886 -0.0045507256946729834554 0.0046619283313477696135 0.0046619284728899590409 -0.0013613681959294286674 0.003491806724505911938 0.004344569021912055018 0.0012099958105993972347 0.0017878505512147638366 0.00040820544377951777136 0.00040820634147933866284 0.00076316096858180929897 0.00076316086082238595266 0.013816324101252858148 0.0064715584055719064388 0.0035037480646353505627 0 0 -0.0062807724189750235161 -0.0062807814834917900446 0.0064507577042074212142 0.0064507577634261153987 0.0030753821751730325319 0.0069317176729675432367 0.006971615444480104215 0.0036243076749529383809 0.0035304903163334631737 0.0029594451365952839129 -0.0035659430033274765529 -0.0035659429969133148164 0.012720046777715293684 0.0041364574740018061894 -0.0013945478971289101099 -0.00047430395460304204235 0.0014341468169360672633 -0.006874270281208139273 0 0 0.0012177940395609921937 0.0012177876342632488159 -0.0010089324096278222583 -0.001008932475759282809 -0.0057911594171670367423 -0.00049067381997251323811 -0.00039708122457027782148;0 -0.0011400702977915715391 0.0023604213512186259308 0.0023604190179158214893 -0.0032899116368917250865 -0.0032899116923812052847 -0.010009000763770523057 -0.010492349943179581084 -0.0075733731541859942646 -0.002394417763121851981 -0.00011068342639548718023 0.0023973666005865160167 0.0023973653791970633321 -0.0024593650509502629209 -0.0024593651254258587502 0.00067744994309714952688 -0.001858047046439341779 -0.0022998121551796105178 -0.00067171503206315315987 -0.00096952261286622869185 -0.00020826772904940679914 -0.00020826820101902830586 -0.00041731695972040426306 -0.00041731690301318510178 -0.0073291001499641572625 -0.0034481508233827466194 -0.0018744414175710143525 0 0 0.0033239112513732153517 0.0033239159854860562439 -0.0034145290541679456514 -0.0034145290849043686068 -0.0016549953567318164294 -0.0036771543185003469426 -0.0036939360921900239385 -0.0019962312168807679058 -0.0017707311027011427267 -0.0014725112363648143552 0.0018208935549500866128 0.0018208935515767745664 -0.0067029477299023051615 -0.0022086157602374278421 0.0006899833927673652053 0.00031583392395941923842 -0.00070614558505899401811 0.0036582535661834002759 0 0 -0.00071728404449180899888 -0.00071728067026410576371 0.00060711669694444106177 0.00060711673183242310502 0.0030849452095733547255 0.00032618846604119195376 0.00028218754243642226376;0 0.0033904494301098772081 -0.0083712389372130255327 -0.008371230942887507992 0.011493322498326682263 0.011493322686785592199 0.03394923246217924212 0.035662988090028352461 0.025874715399378554054 0.0078528094783303827725 0.0001713127174462589393 -0.008109016295288578452 -0.0081090121584306389113 0.0082820473610202768877 0.0082820476139060916071 -0.0027195830781761910246 0.0060856321739698503517 0.0076603363521966913105 0.0018995261677059245738 0.0029822582602898155268 0.00079954310370528817054 0.00079954471240467454591 0.0012208264670264270223 0.001220826274515134308 0.024217441244314581728 0.011211531940990983325 0.0060007835227505103987 0 0 -0.011100080806412731746 -0.011100097299047349125 0.011395379211747328624 0.011395379320845324886 0.0052472763389814292348 0.012186391895763223556 0.012287758001899327237 0.0057473314277123131039 0.007026573945354830375 0.0059877157977237258427 -0.0067943618781586435224 -0.0067943618666918420557 0.022681184858058454218 0.0071718125901716655093 -0.002805252800438771954 -0.00032935442581383169575 0.0029071119008032423117 -0.011987505255062012172 0 0 0.0015593524018722138523 0.001559341004837089175 -0.0011886172427661492994 -0.0011886173605071474572 -0.010059678195246547078 -0.0003338386147095246401 -0.00012151971211232142148;0 0.00051905763165324616138 -0.001059873859151444454 -0.0010598728083119355117 0.0014791443380309044278 0.0014791443630369190479 0.0045116824852842124863 0.004728333612472847107 0.0034114057382741091139 0.0010821687357242719754 5.2165869996185057803e-05 -0.0010807345726071724765 -0.0010807340220441775426 0.0011090910763960160155 0.0011090911099591181828 -0.00030067396858611083847 0.00083981527658353249347 0.0010380738940668832789 0.00030688359244271433499 0.00044036934816211428974 9.3194768048339394432e-05 9.3194980710386749498e-05 0.0001898120068980510642 0.00018981198134132438028 0.0033098399421745395253 0.0015588934633519249684 0.00084825331329245814982 0 0 -0.0015002959529111876882 -0.0015002980823366446166 0.0015412754290228638295 0.0015412754428250523882 0.00075032533549222583426 0.0016607836224897462585 0.0016678375464894087694 0.00090993032461511645474 0.00078803748336843794462 0.00065389987976724678678 -0.00081409517463113380362 -0.00081409517311113906157 0.0030220872130185360942 0.00099924500530289739504 -0.00030570088771271616487 -0.0001500930630728310438 0.00031239648670473363964 -0.0016535844160768401259 0 0 0.00033211639558220927212 0.00033211487456716033521 -0.00028243727079641932527 -0.00028243728653112512702 -0.0013946972718681669486 -0.00015489275076609681321 -0.000135662533699036289;0 0.00042694362605012232828 -0.0008715962870304919119 -0.00087159542282574508504 0.0012164116637951470287 0.0012164116843601661174 0.0037104524068424680691 0.0038886076405649045926 0.0028055388943636640729 0.00089002117514399322999 4.2931424403287211933e-05 -0.00088880704283564131423 -0.00088880659004902462864 0.00091213335481562325593 0.00091213338241806680724 -0.0002472100326954970121 0.00069070367027439889471 0.00085374088814000530061 0.00025244112448747014132 0.00036221025455859860937 7.6633953295713523428e-05 7.663412818936791895e-05 0.00015612749634791423079 0.00015612747532995203915 0.0027221266028547071864 0.0012821121470011961202 0.00069765793818847652435 0 0 -0.0012338857528180430332 -0.001233887504010715893 0.0012675894211051075538 0.0012675894324554017392 0.00061713649736856105842 0.0013658895311217005616 0.0013716836198905592997 0.00074847399224093876056 0.00064795422516000127696 0.00053764280802805653348 -0.00066943044063265486759 -0.0006694304393826115045 0.0024853989955970130256 0.00082183915200690878591 -0.00025133771214726018496 -0.00012354261343958971068 0.00025683569004120252594 -0.0013599830663158002288 0 0 0.00027325357815789053486 0.00027325232726617930401 -0.00023239707151366368839 -0.00023239708445411524159 -0.001147066292523117462 -0.00012749289720077953665 -0.000111685294012164372;0 0.00085342577047123888753 -0.001753350241737983671 -0.0017533485056458368925 0.002445544397587578328 0.0024455444388887638898 0.0074508385533035058693 0.0078095356014064639533 0.005635538427049973341 0.0017850634107727096113 8.4482864544942860114e-05 -0.0017847217051936974542 -0.001784720795967580315 0.001831251022071141675 0.0018312510775048492125 -0.00049998780361694167718 0.0013852527359423654364 0.0017133075405822996949 0.00050380435711985869889 0.00072480119341506127166 0.00015439743744443055183 0.00015439778870760770702 0.00031223399739002097352 0.00031223395518069574578 0.0054615703723369986994 0.002571098631940682902 0.0013984354888185634904 0 0 -0.0024762044561225829246 -0.0024762079760839552159 0.0025437832442810385213 0.0025437832671132286529 0.0012359609405527001002 0.0027403194390874610099 0.0027523434286137937396 0.0014953426415593861105 0.00130879891560626389 0.0010870658738735693334 -0.0013493378061042969607 -0.0013493378035936754757 0.004990361188561572188 0.0016475064015318619838 -0.00050874850951982016328 -0.00024222718440651072884 0.00052024399765837484391 -0.0027274643112973817258 0 0 0.00054206189212382721761 0.0005420593802525811673 -0.00046003334982791440353 -0.00046003337580677300779 -0.0023002731477438464851 -0.00025006363348326808788 -0.00021786600774649801378;0 -0.0013898436601131446827 0.0028780562627314164141 0.0028780534178320911834 -0.0040113172638307484016 -0.0040113173314859033175 -0.012203410080530429152 -0.012792731428104876096 -0.0092338342693380568577 -0.0029192763865867206972 -0.00013487788357373014874 0.0029229539076002738519 0.0029229524184289077705 -0.0029985308484460734997 -0.0029985309392497102449 0.00082613996953632095038 -0.0022653198291388235847 -0.0028039668981161228883 -0.00081882279686869405191 -0.0011819560841127170741 -0.00025399240690145266685 -0.00025399298235199247939 -0.00050869888071063552436 -0.00050869881157072764123 -0.0089356246097229922315 -0.0042038840618655436837 -0.0022852103699494623161 0 0 0.0040526068645028515136 0.0040526126367421587068 -0.0041630877895394626659 -0.0041630878270166125216 -0.0020177354784197336184 -0.0044832586895323794929 -0.0045037340740294445895 -0.0024334247697581686681 -0.0021594430314966378028 -0.0017958272727949177883 0.0022203635097740722845 0.0022203635056611843029 -0.0081725023145759034121 -0.0026927187804819427246 0.00084143230169793207553 0.00038475439070827097609 -0.00086108815698854692441 0.0044601784827032423669 0 0 -0.00087415353276544939618 -0.00087414941881247011906 0.00073983435520448581103 0.00073983439774148122142 0.003761141150164708756 0.00039736448565662069871 0.00034368480956731468651;0 0.0011247630379665222652 -0.0023229885259749873117 -0.0023229862284539900749 0.0032384802958885226289 0.0032384803505330680279 0.0098570391239207692108 0.010332579191893081008 0.0074574679621058027543 0.0023591735150241175366 0.00010988464639511457874 -0.0023610055823634493524 -0.0023610043795134739129 0.0024222215765252732775 0.0024222216498672130038 -0.00066534700565974475191 0.0018307203672376685336 0.0022654408145067615916 0.00066310350376950360791 0.00095609737598353590829 0.00020483879164106248314 0.00020483925641279183234 0.00041164217743939915221 0.00041164212159492123873 0.0072202159727774231635 0.0033975835356574645915 0.0018472738599786436061 0 0 -0.0032742238587246297495 -0.0032742285192073027067 0.0033635172166312514615 0.0033635172468806382243 0.0016315405689884888204 0.0036225917193944663988 0.003638920971711476389 0.0019698461863000911627 0.0017399096939409164353 0.0014463290321905346303 -0.0017906505476601565583 -0.0017906505443382803641 0.0066014316280180833363 0.0021765089838820775477 -0.00067744866519415581664 -0.00031403524098805502994 0.00069313076775390377281 -0.003604493994059420562 0 0 0.00070980756889426732236 0.00070980424587510572605 -0.00060130495221390395984 -0.00060130498657552081034 -0.003039711566655342069 -0.00032428699905885378495 -0.00028118852133466308053;0 -0.0033660705883825415598 0.00794108335272817982 0.0079410757053427517838 -0.010942747684514387077 -0.010942747865202204216 -0.032558575870962232213 -0.034185411592610452647 -0.024770923551852338379 -0.0075960089636231747576 -0.00021336928030185375914 0.0077827105798126692063 0.0077827066106313331703 -0.0079576497111533556206 -0.0079576499536123165152 0.0025064642796170286641 -0.0058889647854619723774 -0.0073808141637722686143 -0.0019126617311443115058 -0.0029333186614028295032 -0.00074231743249479663696 -0.0007423189733329202877 -0.0012200805292854935945 -0.001220080344696017078 -0.023382226921276887122 -0.010871855886686432324 -0.0058437758479139558995 0 0 0.010687709349672946946 0.010687725060144565026 -0.010973838813238630599 -0.010973838916688391509 -0.0051209456667425960405 -0.011756635108097684972 -0.011843084294659363132 -0.0057663097052885869259 -0.0064896563377927285812 -0.0055000812380146275188 0.0063677924283325974125 0.0063677924173411570158 -0.021762766990986885662 -0.0069528511592314833772 0.0025802199555970996292 0.00049602444439311634689 -0.002660784270761420902 0.011600864128638293388 0 0 -0.001710297907199234517 -0.0017102869647695174114 0.001354046794153568236 0.0013540469072007958479 0.0097475918272545269277 0.00051035596889149360822 0.00032214707533472647111;0 0.0015091058844323617175 -0.0031533594576088667082 -0.0031533563465863645968 0.0043913626400689190904 0.004391362714022707496 0.013337424061249821688 0.013983764457769288711 0.010096395041122717406 0.003185069306451366461 0.00014306857059466225103 -0.0031943616175934058318 -0.0031943599900651356918 0.0032761774994746650953 0.0032761775987299852041 -0.00091187923401515479007 0.0024714465911395942788 0.0030618095586309609056 0.00088706122370385250345 0.001285391263990655385 0.00027897627894836457682 0.00027897690803361331396 0.00055262328289908189786 0.00055262320732583230815 0.009754001535749729293 0.0045855863976801136683 0.0024910772312759154809 0 0 -0.004425373744814960382 -0.0044253800621646402144 0.0045458679525237320751 0.0045458679935843175623 0.0021970347520887402969 0.004893643919677561141 0.0049169930548220797464 0.0026399933351447077597 0.0023797629002809922265 0.001981803863213516155 -0.0024395467320855856314 -0.0024395467275894824888 0.0089307082161052958602 0.0029359247642328683073 -0.00092976628158030730394 -0.00040563240174419868062 0.00095234658062980906326 -0.0048658698744654844959 0 0 0.0009383894637911425118 0.00093838496772919463649 -0.00079162908649965310886 -0.00079162913297348255943 -0.0041026831136059026608 -0.00041911392838671096984 -0.00035927337322230279513;0 0.0031637132473046900363 -0.0074841086966450738258 -0.0074841014933453593044 0.010310698152448369985 0.010310698322640506411 0.030660103688241052006 0.032196590712414444035 0.023332025039822453655 0.0071502045730817247182 0.00019778739864985804705 -0.0073297820793432038461 -0.0073297783412457498745 0.007493950545197230334 0.0074939507735700379779 -0.0023673953871395413476 0.0055430312985704881246 0.0069493593021237249144 0.0017964348440079067146 0.0027583889753021464085 0.00069849689099837550515 0.00069849834213388684728 0.0011487228654223802671 0.0011487226915652434638 0.022016367315974429142 0.010235775612161561801 0.0055016868945858216425 0 0 -0.010060274933042416892 -0.010060289732658912742 0.010329537743699084701 0.01032953784119327971 0.0048135395615550883794 0.011064920351992054218 0.011147188774010160367 0.0054216621001316085693 0.0061188647371291640317 0.0051865961985208290305 -0.0060051668686008372391 -0.0060051668582472243069 0.02049423357238780094 0.0065421044625205695619 -0.0024381371605054461167 -0.00045923500580219981564 0.0025181687801017144449 -0.010917040109902749478 0 0 0.0016026735348982439587 0.0016026632267964109092 -0.0012670921383057601184 -0.0012670922447413277261 -0.0091742903397223993928 -0.00047244392929595530831 -0.0002950894991777591389;0 -0.0027546216290106157951 0.0061844237528903521495 0.0061844177404685616792 -0.0085576103796798173168 -0.0085576105221124264266 -0.025666118394895603982 -0.026937562843440100713 -0.019491561979606893129 -0.0060456803043324389146 -0.00021077778761498179756 0.0061415741328485085743 0.0061415710020503002167 -0.0062872786122321567756 -0.0062872788033661707735 0.0018883318700239487553 -0.0046887477780556095774 -0.0058492047760281117713 -0.0015882519406604006431 -0.0023772080837555003771 -0.00056259073123636591136 -0.00056259194425972638021 -0.0010067279854071248344 -0.0010067278398931084164 -0.018576739530157527353 -0.0086791972422751439975 -0.0046874403438200923713 0 0 0.008460027569249224319 0.0084600398605518319778 -0.0086881137161322549711 -0.0086881137966675209272 -0.0041096717851480096123 -0.0093257503449333482154 -0.0093848425008872266712 -0.0047708337872555874742 -0.004890888029491901462 -0.0041165916651719350675 0.0048892483918139811178 0.0048892483831510895331 -0.017167914589805242237 -0.0055467671816730595991 0.0019385847463987007991 0.00055108360055056691308 -0.0019954116397907588863 0.0092325578085068263356 0 0 -0.0015391571534517944388 -0.0015391485116486313973 0.0012575314933610723649 0.0012575315825840778679 0.0077711476953208173668 0.00056983565369926516414 0.00043575445266456403794;0 -0.0029427482839384029763 0.0067206049452098581137 0.0067205984332631227979 -0.0092860083937038370022 -0.00928600854783635625 -0.027771828522158814589 -0.029152953761226622215 -0.021105078678764800648 -0.0065202786237584919177 -0.00021195704934159662167 0.0066434576865163673734 0.0066434542993866014735 -0.0067981693270463489434 -0.0067981695338758399774 0.002076542554619102178 -0.005056155381845181887 -0.0063178091544807612676 -0.0016884509180291576609 -0.0025479267103468011824 -0.00061645798751056382365 -0.00061645930066941349423 -0.0010734526389531409609 -0.0010734524814914889537 -0.020048816356747031775 -0.0093520868312731292304 -0.0050430734706961299896 0 0 0.0091404499633492251875 0.0091404632977219752582 -0.009386295572085919664 -0.0093862956596118263253 -0.0044183077301887356547 -0.010068411350311910757 -0.01013582773456092774 -0.005080191870131244361 -0.0053743116099226649965 -0.0045343213235799735908 0.0053395475732133379498 0.0053395475638381550282 -0.018571988937888091187 -0.0059766094513174277889 0.0021343039833710861046 0.0005370421264116099656 -0.002198869356281416259 0.0099569135551431046244 0 0 -0.0015954367051373022704 -0.0015954273588081688967 0.0012909570329735756047 0.0012909571294712890704 0.0083764503802524897802 0.00055482319819761269711 0.00040463621685217092449;0 0.0014853118147144699426 -0.003103918872447121273 -0.0031039158102618312138 0.0043224760502694695857 0.0043224761230620731278 0.013127974334415353636 0.01376419634481657224 0.0099378940357500982622 0.0031349995443625535904 0.00014077841274823417721 -0.0031441991535910616094 -0.0031441975516209646688 0.0032247224946679001363 0.0032247225923647824045 -0.00089764836632641312793 0.0024325946002258891192 0.0030137036311576525724 0.00087305722596543809243 0.0012651450372730764071 0.00027460171764837851705 0.00027460233685599555551 0.00054392178881745823719 0.00054392171443086250425 0.0096007320151147105408 0.0045135045326971162324 0.0024519079220344450198 0 0 -0.004355836486170342782 -0.0043558427043920945262 0.004474435932907630184 0.0044744359733243877983 0.0021624427134587604835 0.0048167282465878605291 0.0048397209556925490162 0.0025983650442190004727 0.0023425569578386113562 0.0019508423117824910415 -0.0024013585901154397249 -0.0024013585856899367921 0.0087904512041485534379 0.0028897493188203252253 -0.00091526738146233566767 -0.00039912733110607781983 0.00093751802289387931554 -0.0047893647427812383738 0 0 0.0009235031200860556802 0.00092349869461931305067 -0.00077904752262794509533 -0.00077904756837175812966 -0.0040381802833881954434 -0.0004123953696943505158 -0.00035348542359446284526;0 0.0032772777533086779045 -0.0078868559074452525282 -0.0078868483405625088717 0.01085043156589450726 0.010850431744516185473 0.032178047027468847929 0.03379537696402862279 0.024502357518366088551 0.007479594975331160453 0.00018937483028419341497 -0.0076899629739068595113 -0.0076899590515777747207 0.0078589199776470299724 0.0078589202173303587123 -0.0025220993635165539666 0.0057975945340128596378 0.0072802306542559874422 0.001851112872472782632 0.0028673958109500892119 0.0007429522891358612607 0.0007429538128303104106 0.0011861750066393024223 0.001186174824173583239 0.02304493919145816222 0.010695916263222034204 0.0057393796634323986094 0 0 -0.010543294395230613791 -0.010543309967695306539 0.010824801871067771947 0.0108248019738252238 0.0050203661959287420452 0.011587736525763501702 0.011677986858075004722 0.0055928097646837562212 0.0065177766704315031471 0.0055368498721782835256 -0.0063579749647807576318 -0.0063579749539136526729 0.021504256869495523563 0.0068382905958081913189 -0.0025993152206661954313 -0.00041358177924232203231 0.0026877896680013078044 -0.011419352870599823804 0 0 0.0016000211150174752268 0.0016000103030626750163 -0.0012481505628757722046 -0.0012481506745369201974 -0.0095908986847074214482 -0.00042374998563419064967 -0.00023153372872832249808;0 -0.0011884277252152254754 0.0024594600145943748722 0.0024594575831580430848 -0.003428089671075568428 -0.0034280897288998806068 -0.010430239761510475341 -0.010933837217711241466 -0.0078919281972426799654 -0.002495397619083249835 -0.00011550835605723730254 0.0024982667956845905528 0.0024982655228905125203 -0.0025629043077152967832 -0.0025629043853246523572 0.00070562062055368808978 -0.0019364085748388086376 -0.0023967022126694416395 -0.00070027945529852744441 -0.0010105669104881831802 -0.00021698894952582866791 -0.00021698944135307372252 -0.00043499601865801712812 -0.00043499595956456526234 -0.0076379833775225445744 -0.0035935905722814841592 -0.0019535600064421571563 0 0 0.0034639503934725045069 0.0034639553265039639551 -0.0035583916424334481772 -0.0035583916744596510474 -0.0017249675367702107381 -0.0038321525792382985127 -0.0038496030275800845362 -0.002080963166551617026 -0.0018445358241730564191 -0.0015337853987684375075 0.0018970427504248707235 0.0018970427469096298907 -0.0069850957041512427154 -0.0023018359744362334313 0.00071863433201813239296 0.00032968007413334659813 -0.00073542163220215899574 0.0038125555383092613396 0 0 -0.00074809981173394352483 -0.00074809629550124572082 0.0006332945675009943971 0.00063329460385795838598 0.0032150775237044068762 0.00034047905169302039238 0.00029466874173133704093;0 -0.002410396944963926532 0.0052228417666085004065 0.0052228366526737551173 -0.0072494998520901271499 -0.0072494999734469493108 -0.021876123589736496539 -0.022948920106083691567 -0.016587815800797944127 -0.0051879896654546137774 -0.00020655200463533010774 0.0052372550983091417653 0.0052372524292307121377 -0.0053663478593553547158 -0.0053663480222178863363 0.0015537863509434480559 -0.0040246431125814385865 -0.005003608403784444783 -0.0014034003435313903603 -0.0020664161173913407447 -0.00046816684111434023587 -0.00046816787399565749526 -0.00088251997113934787815 -0.00088251984714300798964 -0.015915870521434869606 -0.0074594180259825657031 -0.0040406852893635943069 0 0 0.0072341111650395875654 0.0072341215847669376043 -0.0074301008657556696577 -0.0074301009337623246526 -0.0035518237061774367985 -0.0079867446834845159942 -0.0080312286358564851513 -0.0041976575862481668028 -0.0040368641972719663744 -0.0033804688448882558999 0.0040858193335751007841 0.0040858193261954387984 -0.014640139426834690786 -0.0047703839242821859459 0.0015903077370128617697 0.00056626539862061604867 -0.0016329655139468717169 0.0079242502545863006957 0 0 -0.0014246611007793905015 -0.001424653730037542471 0.0011842727425901940826 0.0011842728187222712876 0.006676027445910947232 0.0005857021757968786926 0.0004794600750454875316;0 0.0022016770455167578718 -0.0047952656650208334843 -0.0047952609747696148257 0.0066529574611044438315 0.0066529575723839979792 0.020056905187539508101 0.021042845028174217425 0.015212542066352172793 0.004752046614794587856 0.00018567633085390364322 -0.0048016889358800324619 -0.0048016864887375785079 0.0049193760168161296958 0.0049193761661534777391 -0.0014323313400686297353 0.0036862939451520401746 0.0045853076517039575641 0.0012801630423062647889 0.0018892487720900341067 0.00043021538222052970856 0.00043021632934936481288 0.00080657212675936133719 0.00080657201306357526136 0.014583051897880451933 0.0068320883360162964343 0.0036996006329512590508 0 0 -0.0066290066044309798807 -0.0066290161649626725901 0.0068084807035120242444 0.0068084807659502767294 0.0032489693791616265639 0.0073169584593810177431 0.007358600772955693238 0.0038325757727225005268 0.0037169221400256131742 0.0031146374919260497692 -0.0037568710419214985594 -0.0037568710351542971768 0.013421892575877347048 0.0043677177815419025025 -0.0014668118445618101835 -0.00050691186965986362572 0.0015076353822391101635 -0.0072574900704802849244 0 0 0.0012922650017192158223 0.0012922582434796987642 -0.0010718802917594686796 -0.0010718803615456878008 -0.0061140882817368874536 -0.00052437701834383732436 -0.00042608332220214561277];

% Layer 2
b2 = -0.0055618187711726375239;
LW2_1 = [-0.057004981340599475415 0.063310759618409692684 -0.027645340073516065649 -0.0051888546860778044997 0.011088457875636736211 -0.018261274369244576837 -0.087295971981547398899 0.074046628129462263579 0.085967261036127631812 -0.0074977477336862531632 -0.022273472453734073639 0.0057829544846019305046 -0.085489246297534515762 -0.021347080499606173321 -0.069160041455632204066 0.073677763433902573875 0.035242762818062219055 -0.064606034661191663604 0.041694226879163465149 0.082591885481740304198 -0.045995257136801588616 -0.020030807748977554755 0.069134948180334054868 -0.057931123972282928813 0.010125059291443253701 -0.031767217124885151203 0.069324724339570223397 -0.01850198241850824557 0.016733111228476940657 -0.075667042127537192941 -0.069404033708637000166 0.00057563247683162384848 0.083000958798909091341 -0.012064662153438021272 0.071653592606229887796 0.066059678363303869775 -0.072734226829188022845 0.082639505687232744924 -0.068930291035987828474 -0.069826045820137322417 0.07704027379448340207 -0.080429225899078221618 0.014329969369661858108 -0.08851608935003218992 -0.049655350276381765573 0.065493703840458647458 -0.012390414496395923266 -0.084803266015629166774 0.022388176377217964413 -0.024044107525550792448 -0.078124682896757710604 0.0066307610110540489423 0.029376213685618907112 -0.074723567426793244262 0.060992239433630690559 0.049889312292515496094 -0.061181795584257424314 0.072209887317762067038 0.074221513735593325212 -0.079104563464554647489 -0.045920347314187440202 -0.052356690089718084524 0.049397712395246741457 -0.080094476921577492656 0.065009983395100487402 0.057882984195832362651 -0.011346359940699652161 0.068269856777462362141 -0.074688155896986935245 -0.089205420597023438178 -0.085167184963415881738 -0.00072821347081317459524 -0.0746098962638596791 0.034895517483588496532 -0.080408784794482948688 0.096752048320442471385 -0.053669413900184474719 0.046948326072480159321 0.027867508686751675528 -0.071827266991015076281 -0.0016803228702450304869 0.085301427701219678656 -0.079286830756074358484 0.069248620609316607899 -0.056432142217797826023 0.078498102453590429262 0.080046260357863135981 0.084195535862083822898 0.066346207190368350348 0.029578179616734350671 0.0041039614992805428448 0.067872500911845559668 -0.0040907894472205028752 -0.084589949007272624559 0.051805981814317544898 -0.025092934368518674676 0.089321209636961648726 0.010723357698826794376 0.010317906529536503141 0.018480624530828028418 -0.025320457422009615828 0.023201721945988788842 -0.078071369522194400403 0.031310747693637966393 0.078121198522280874132 -0.062244874990434281847 -0.067855126803929660673 0.03135093204916571813 0.082811887098912351224 -0.024785331472016822185 -0.049255589658768340888 0.050948362268464969516];

% Output 1
y1_step1.ymin = -1;
y1_step1.gain = 3.14134283610484e-05;
y1_step1.xoffset = 16578.93;

% ===== SIMULATION ========

% Format Input Arguments
isCellX = iscell(X);
if ~isCellX
    X = {X};
end

% Dimensions
TS = size(X,2); % timesteps
if ~isempty(X)
    Q = size(X{1},1); % samples/series
else
    Q = 0;
end

% Allocate Outputs
Y = cell(1,TS);

% Time loop
for ts=1:TS
    
    % Input 1
    X{1,ts} = X{1,ts}';
    Xp1 = mapminmax_apply(X{1,ts},x1_step1);
    
    % Layer 1
    a1 = tansig_apply(repmat(b1,1,Q) + IW1_1*Xp1);
    
    % Layer 2
    a2 = repmat(b2,1,Q) + LW2_1*a1;
    
    % Output 1
    Y{1,ts} = mapminmax_reverse(a2,y1_step1);
    Y{1,ts} = Y{1,ts}';
end

% Final Delay States
Xf = cell(1,0);
Af = cell(2,0);

% Format Output Arguments
if ~isCellX
    Y = cell2mat(Y);
end
end

% ===== MODULE FUNCTIONS ========

% Map Minimum and Maximum Input Processing Function
function y = mapminmax_apply(x,settings)
y = bsxfun(@minus,x,settings.xoffset);
y = bsxfun(@times,y,settings.gain);
y = bsxfun(@plus,y,settings.ymin);
end

% Sigmoid Symmetric Transfer Function
function a = tansig_apply(n,~)
a = 2 ./ (1 + exp(-2*n)) - 1;
end

% Map Minimum and Maximum Output Reverse-Processing Function
function x = mapminmax_reverse(y,settings)
x = bsxfun(@minus,y,settings.ymin);
x = bsxfun(@rdivide,x,settings.gain);
x = bsxfun(@plus,x,settings.xoffset);
end
