function [Y,Xf,Af] = myNeuralNetworkFunction(X,~,~)
%MYNEURALNETWORKFUNCTION neural network simulation function.
%
% Generated by Neural Network Toolbox function genFunction, 16-Sep-2018 12:13:04.
%
% [Y] = myNeuralNetworkFunction(X,~,~) takes these arguments:
%
%   X = 1xTS cell, 1 inputs over TS timesteps
%   Each X{1,ts} = Qx14 matrix, input #1 at timestep ts.
%
% and returns:
%   Y = 1xTS cell of 1 outputs over TS timesteps.
%   Each Y{1,ts} = Qx1 matrix, output #1 at timestep ts.
%
% where Q is number of samples (or series) and TS is the number of timesteps.

%#ok<*RPMT0>

% ===== NEURAL NETWORK CONSTANTS =====

% Input 1
x1_step1.xoffset = [20.32729935;1315609;1147;5.64474e-13;6.83013e-09;8.174925683;326206945.4;1;2.56e-06;0;1;1;1;1];
x1_step1.gain = [0.267802057408588;8.63395468451616e-09;0.00014168319637291;35545617948.6603;14185919.3826969;0.557047139482209;1.70288698978168e-09;0.285714285714286;2.00000512001311;0.21533827902625;8.19200003355443e-09;0.00320512820512821;0.0833333333333333;0.25];
x1_step1.ymin = -1;

% Layer 1
b1 = [-0.0095361506419960554576;-0.016695214807817614772;-0.025448681208309460733;-0.019260086153191083996;-0.01574159161981111138;0.015534830700377028415;0.012804535454519035825;-0.0068354770766436215301;0.01810682990324604183;-0.011113730847200445698;-0.019650230190471084518;-0.0047941416872814071604;0.012755822940518413144;-0.005717164108915652812;-0.010389597100425572787;-0.010350619929200324462;-0.003980087399250698682;-0.016971066993956774455;0.0010546231866950341906;-0.0098544024416340417899;0.00060843069042814919636;-0.0075321048428128173358;0.011886316193160783444;-0.024221296596615194546;0.065405478921347279253;-0.016361786027982501424;0.018499882049265864437;0.012432707618152254517];
IW1_1 = [0.011910460556231954043 -0.056961904713620434282 -0.023490743927161095855 -0.013496213812256458234 0.034621688802417442676 0.0034969598672253423242 -0.041232657934479846618 -0.0043822643587976819676 0.010946067789407838006 -0.0014296134135023421102 -0.031188789588508045864 -0.0060988547943771950072 0.0067085930715732270541 0.020833924166747119777;0.019381574549424636367 -0.094525365613755393812 -0.039069935893276855343 -0.021428010799065456971 0.058838105487099182089 0.0063922582853222272709 -0.067102595206583140475 -0.0048339418707613783857 0.01668771408724741348 -0.0012142927428599804059 -0.05121428190430635935 -0.0090112926211474535243 0.012435554565442886663 0.03196422589574585138;0.03720324757795612225 -0.170887942645022467 -0.069143977509971643602 -0.031244834567497690309 0.11437354076330343011 0.016500818357436781991 -0.11503724648972386835 0.0031048693428436784786 0.015576214156806395678 0.00131230175093352921 -0.096810435150260373827 -0.018098395747524038957 0.022314703876686336342 0.040941356550111239476;0.022157041686891039423 -0.10810058728462276778 -0.044634161070439770658 -0.024095992606534114705 0.067929017033287741878 0.0077462637449198156955 -0.076169774077021121239 -0.0042881875338489135879 0.018095986046298469935 -0.00082000011241847197471 -0.058549761338676523104 -0.0099541522606408777696 0.014726252845799628691 0.035321913388115896981;0.018388388169014259488 -0.089573758236666106702 -0.037026865143129784885 -0.020425195873603672198 0.055570951055635135762 0.0059477888872749226645 -0.063759070782744620143 -0.004929839817248628242 0.01606812524534872999 -0.0013164910719118566064 -0.048564913097809948861 -0.0086634503550468266314 0.011621310766827333549 0.030642978016424189669;-0.018174504593200475899 0.088502758688367294537 0.036584223917694669304 0.020206491840828420814 -0.054867479315673650664 -0.0058547702461029882751 0.063033307466131671681 0.0049437458125489034191 -0.015927454185034831818 0.0013355646173117462303 0.047993093934125402589 0.0085873762847338049736 -0.011447167428801943018 -0.030350941264066830239;-0.015363328275529731723 0.074336692873336468468 0.030711722653511488307 0.017257304520185482583 -0.045664237023890739964 -0.0047156962769069627611 0.0533453614857807637 0.0049128243068319128392 -0.013869689706842760687 0.0014867812907751944574 0.040451494622658908107 0.0075384590451346138867 -0.0092203399326084307247 -0.026289920622981036158;0.0088607439701536110099 -0.041898616927634101115 -0.017242396206577879914 -0.010094120853112252545 0.025257165751478120874 0.002535939481084722915 -0.030526904170538868288 -0.0035465087884520708587 0.0081743636718524630147 -0.001195457915014921501 -0.02307836313573250614 -0.0046794658935283457712 0.0047353299076783898422 0.015706732645195960185;-0.020883826776428998651 0.10192896765261079406 0.042112203035110193361 0.022899479134182550849 -0.063770529604589731854 -0.007104562275806611954 0.072065604889633261276 0.0045895423315344451368 -0.017512135791372555882 0.0010192668255001738689 0.055198844932723360734 0.0095246519270884358321 -0.01367673210429962323 -0.033846313116602591564;0.013599947505888953375 -0.06543729955416302535 -0.027013229244795128325 -0.015351468628109786463 0.039975281951581842499 0.0040720094598716291903 -0.047173281247793109883 -0.0047039655159288552497 0.012417718871516335993 -0.0014889065841020769458 -0.035714902606901695326 -0.0068256545896744156426 0.0079021374115432457125 0.02355869048154824244;0.022600965035492904393 -0.11022648901140297273 -0.045499457821197318574 -0.024500664575384946409 0.069372094123706179447 0.0079780764635985768063 -0.07757649855934499461 -0.0041629606503059300368 0.018273445776349327846 -0.00074421051682502540811 -0.059711806940177518388 -0.01010409034272723855 0.015089343526582522231 0.03580875983526236872;0.0063822434757062227947 -0.029931699987383975775 -0.012297517513909761097 -0.0072930436949974059013 0.017945577732175917868 0.0018031869288459717333 -0.021898474302140362446 -0.0026767434890126429702 0.0058801595233614369074 -0.00091433044617876188791 -0.016558266869853704994 -0.003435282201616044178 0.0032918505082167267596 0.011396534513049659879;-0.052793693395977142613 0.2205778515075565438 0.087150400659887924948 0.020167252403180492559 -0.15948221750904170713 -0.018468964240243163077 0.13797611636549206304 -0.00026236600835264549478 0.0050651676696154938895 2.4452802284906046716e-05 0.13826859894969173448 0.03922661158815313881 -0.014402098731295113337 -0.02260623914038894372;0.0075232093747967026739 -0.035409499855449513839 -0.014558632946975206754 -0.0085857653303154507496 0.021279358187700599808 0.0021365835120925498469 -0.025860468697258953003 -0.0030948543104371843866 0.0069375411656627302553 -0.0010518568210483396613 -0.01955164772586832217 -0.0040170029623073141151 0.0039401458458323389972 0.013393357902322589742;0.012831064235046761232 -0.061571412006924647331 -0.025406256401184698634 -0.014510262965761876186 0.03752563509207468978 0.00380575553221319373 -0.044471150627917226117 -0.0045714683035833949404 0.01175601179471784212 -0.0014689468141929997499 -0.033652924176947589252 -0.0065002781061767054074 0.0073501728780734059548 0.022330580070668393927;0.012789380815654826165 -0.061362211062428208275 -0.02531930379790784183 -0.014464503532079831666 0.037393443353639296833 0.0037915467214697340208 -0.044324563163187162551 -0.0045636069554773122867 0.011719727275082613902 -0.0014675216451788162478 -0.033541230708295351193 -0.0064823812821919761171 0.0073206647330889967895 0.02226341251774472535;0.0053480360354914834725 -0.025009381170504291908 -0.01026910653903189731 -0.0061172593186602300386 0.014966912807755894041 0.0015053847995827257869 -0.018322336791206483841 -0.0022757528509438334358 0.0049222825615633410135 -0.00077993270025759962698 -0.013856200448272735712 -0.0028964690744132668213 0.002725295863175433448 0.0095713772748151140779;0.019671563953522638868 -0.095963385323261277127 -0.039662108089183245596 -0.021716561448982249494 0.059791592553876948823 0.0065259788297477114988 -0.068069952441638506557 -0.0047961271892294288569 0.016857749699488146222 -0.0011803254594037638093 -0.051985761340533273578 -0.009111390735464124091 0.012674613195898408111 0.032338779761850088013;-0.0014480956021561742532 0.0067267130591985987639 0.0027581923278091301233 0.0016599471534310674889 -0.0040088616384596981526 -0.00040462959802183836667 0.0049432272034008913064 0.00063551788805396418076 -0.0013284523604073985182 0.00021903391120870485957 0.0037400241004817424972 0.00079502474859899873155 -0.0007178554925745362714 -0.002604048804005535192;0.012255763998526132685 -0.05868807205604596039 -0.024207953957715033083 -0.013877386119235897433 0.035707015667696434535 0.0036115831732588862119 -0.042447515537173019506 -0.0044570041343924204566 0.011251873855943905073 -0.0014462673732439034445 -0.032112352496595109042 -0.0062509332218710798521 0.0069467426254526979876 0.021398473791567243496;-0.00083642829091162341267 0.0038839608172952740962 0.0015924382583479186355 0.00095890406559371687938 -0.0023141672979944110516 -0.00023363276603627168961 0.0028546554689824945455 0.00036766531329162266319 -0.00076715833772570231949 0.00012674752568825914281 0.0021598846170368963399 0.00045954177859039825951 -0.00041401606292696362241 -0.001504482834466339472;0.0096702863863297131714 -0.045862103432171445749 -0.018884225673184335675 -0.011002725298474545085 0.027703006503015995682 0.0027832786682329448136 -0.033361533034931896424 -0.0037966990404349997001 0.0089190264765389819235 -0.0012714451675400295465 -0.025222245171937003605 -0.0050691407690195691357 0.0052367129383063312081 0.017089783211134454421;-0.014410282744266384586 0.069523034859673579766 0.028711564332312766029 0.016231644571214814965 -0.042578420954373197294 -0.0043617512895683871466 0.050015246527433422641 0.0048169289117982860143 -0.013097505008750960631 0.0014964628167215509019 0.037890736083493047059 0.0071589062747181887725 -0.0084991776680802752497 -0.024829367500411359676;0.040474449466121970032 -0.1822502416721991092 -0.073338420796614234298 -0.03015217756273227967 0.12420405064187720057 0.017934633001585317119 -0.12095116096950840612 0.0040955962798308277392 0.012545022651374825029 0.0011610668940184828198 -0.10523185652963978898 -0.021492338759321421432 0.021817749304467344562 0.038727649308444009324;0.096582820173166772371 -0.35318082068399214712 -0.13774328262348312091 -0.15758985672498382336 0.079805688733896998355 -0.13421923383936656959 -0.20776390207216585693 -0.15535300703901144814 -0.092890064914162739917 0.1620196354454587484 -0.21335424769777941445 -0.0050972608765906899514 0.12262033864106167136 -0.23188038097540855653;0.019032842999001507722 -0.092791153596186476404 -0.038355065157030208967 -0.021078387326526847739 0.057691045562671468272 0.0062338241038179297362 -0.065933808097087584499 -0.0048735203469698114981 0.016476617661506050283 -0.0012527000022138101189 -0.050285220594240391534 -0.0088901005360423803608 0.01214874628253858127 0.031506974418115840653;-0.021312077370937421855 0.10401645499329535693 0.042966796504852328153 0.023307542232815586791 -0.065172124434174083518 -0.0073165236064648515521 0.073457153573416394954 0.0044978077607470941593 -0.01772066868230977657 0.00095545824253668665618 0.05632882723749872006 0.0096693221566041907128 -0.01403061881942672777 -0.034355373587529235146;-0.014978465192774478507 0.072392232706915290996 0.029903917876889323652 0.016844446736538946918 -0.044415255556673409465 -0.0045709690122046888958 0.052002533538272388558 0.0048790399750270000562 -0.013561719760322046499 0.001493159177360494326 0.03941730723029675254 0.0073867667339606209176 -0.0089267469184227468681 -0.025704732820072722504];

% Layer 2
b2 = 0.094864388279211286914;
LW2_1 = [-0.093795679360125852608 -0.15535032926334957359 -0.27854896507521959004 -0.17757860421779833593 -0.14724112982102971481 0.14548709294814524129 0.12228215306610409896 -0.06905610645955560789 0.16747408519513476421 -0.10769644052164414894 -0.18105852839293501422 -0.049365467643979012158 0.35032753680262096463 -0.058382876536141603552 -0.10135729825357758793 -0.10101419354042848187 -0.041256832223107421653 -0.1577052652815126299 0.011102751149273747122 -0.09662778013748463124 0.0064108475945593946729 -0.07557040625169479664 0.11439387383410817844 -0.29578410516795877738 -0.54302690297620459514 -0.15251028396052418445 0.17089208922481574637 0.11909598385934977438];

% Output 1
y1_step1.ymin = -1;
y1_step1.gain = 3.14134283610484e-05;
y1_step1.xoffset = 16578.93;

% ===== SIMULATION ========

% Format Input Arguments
isCellX = iscell(X);
if ~isCellX
    X = {X};
end

% Dimensions
TS = size(X,2); % timesteps
if ~isempty(X)
    Q = size(X{1},1); % samples/series
else
    Q = 0;
end

% Allocate Outputs
Y = cell(1,TS);

% Time loop
for ts=1:TS
    
    % Input 1
    X{1,ts} = X{1,ts}';
    Xp1 = mapminmax_apply(X{1,ts},x1_step1);
    
    % Layer 1
    a1 = tansig_apply(repmat(b1,1,Q) + IW1_1*Xp1);
    
    % Layer 2
    a2 = repmat(b2,1,Q) + LW2_1*a1;
    
    % Output 1
    Y{1,ts} = mapminmax_reverse(a2,y1_step1);
    Y{1,ts} = Y{1,ts}';
end

% Final Delay States
Xf = cell(1,0);
Af = cell(2,0);

% Format Output Arguments
if ~isCellX
    Y = cell2mat(Y);
end
end

% ===== MODULE FUNCTIONS ========

% Map Minimum and Maximum Input Processing Function
function y = mapminmax_apply(x,settings)
y = bsxfun(@minus,x,settings.xoffset);
y = bsxfun(@times,y,settings.gain);
y = bsxfun(@plus,y,settings.ymin);
end

% Sigmoid Symmetric Transfer Function
function a = tansig_apply(n,~)
a = 2 ./ (1 + exp(-2*n)) - 1;
end

% Map Minimum and Maximum Output Reverse-Processing Function
function x = mapminmax_reverse(y,settings)
x = bsxfun(@minus,y,settings.ymin);
x = bsxfun(@rdivide,x,settings.gain);
x = bsxfun(@plus,x,settings.xoffset);
end
