function [Y,Xf,Af] = myNeuralNetworkFunction(X,~,~)
%MYNEURALNETWORKFUNCTION neural network simulation function.
%
% Generated by Neural Network Toolbox function genFunction, 16-Sep-2018 15:49:55.
%
% [Y] = myNeuralNetworkFunction(X,~,~) takes these arguments:
%
%   X = 1xTS cell, 1 inputs over TS timesteps
%   Each X{1,ts} = Qx50 matrix, input #1 at timestep ts.
%
% and returns:
%   Y = 1xTS cell of 1 outputs over TS timesteps.
%   Each Y{1,ts} = Qx1 matrix, output #1 at timestep ts.
%
% where Q is number of samples (or series) and TS is the number of timesteps.

%#ok<*RPMT0>

% ===== NEURAL NETWORK CONSTANTS =====

% Input 1
x1_step1.xoffset = [2.81242e-13;4.2926e-09;0.071954088;0.239026308;3.059563418;1509003523;1315609;1147;7.51315e-07;8.26446e-05;0.147463052;0.489861655;1.707570176;132651;2601;51;4.86905e-06;0.000287274;0.169991616;0.564699926;1.230448921;4913;289;17;1;6.4e-05;0.0016;0;1;1;1;1;1;1;1.72015e-14;6.66363e-10;0.0656104;0.217953032;4.256746602;5891690000000;326206945.4;18061.2;3.41987e-14;1.05359e-09;0.067064505;0.222783463;4.156458285;2946960000000;205549569;14337];
x1_step1.gain = [3019288309.72417;2646162.78611304;75.6550831799269;22.7744494817731;1.77923835691729;5.62722293448554e-13;8.63395468451616e-09;0.00014168319637291;294669.502369511;6626.39145937657;69.3760752858069;20.8842792272407;5.99120774087765;1.66896288143104e-06;0.000210548478787241;0.0338983050847458;10066.7957062096;630.331421958351;26.7884914390545;8.06413948819479;3.70094108140473;9.97675416280067e-06;0.0006265664160401;0.0476190476190476;0.285714285714286;2.00012800819252;2.00320512820513;1.43067655773775;0.000128008192524322;0.00320512820512821;0.0833333333333333;1;1;0.25;13112217636588.3;833619195.249037;391.548350543841;117.8677974746;6.03504162428559;3.8282853244022e-14;1.70288698978168e-09;9.67237256044628e-05;6554512404906.31;524738811.256697;373.124930622083;112.321790247593;6.02037497779122;7.60631537152667e-14;2.68967849795496e-09;0.000121425535790177];
x1_step1.ymin = -1;

% Layer 1
b1 = [-0.0023802187928102661388;-0.0022714611684749061275;-0.0023657754145732525462;0.0024329148323345775595;-0.001371883830497375471;-0.0022424047030600619164;-0.0023686031597867883425;0.0023817949059134510374;-0.0018389537574712679427;-0.0022109160232435249964;-0.0022886627486709272376;0.0024061441927172608039;0.0023624460211093558336;-0.002141219080771976542;-0.0023938199699263217057;0.0023928884726955022312;0.0022112473444128701375;-0.0019205229976026554593;0.0023660892300452281319;-0.0022555178632727721291;-0.0022770908260101537825;-0.0023611612945501161444;-0.0019398016313494498286;0.0023445047333097049184;-0.0023681498526738364342;-0.0023704195262037462862;0.002376207931338378352;-0.0019383474675204765292;0.0023838991759050111308;-0.0023722248521876702909;0.0016420549667628149808;0.0023825974212503811187;0.0023319283101198790345;-0.0024207915039517486494;-0.0023715097861571670865;0.0023456966727283283178;-0.0023907345249774818868;0.0024014692599538312902;-0.0023992418102520168301;0.0023582232183619921198;0.0024370500729645476652;0.0023086688037549769024;0.002389223562471318868;0.0022966305585218156279;-0.0022731212639700119904;-0.0020173314766692060883;-0.0023450943940101390099;0.0020895190266435187398;0.0023774819562311531526;-0.0024208124376426799589;-0.0023647585183615218996;0.0023038686321763127487;0.0023219820600207325204;-0.0023336848913352360203;0.0016282048968559866779;-0.0023741239439904093973;0.0023701281047779324158;-0.0022259874458911820677];
IW1_1 = [0.0022624533162655317657 0.0016713017220607803443 -0.0071294137752494074478 -0.0071294155277155180431 0.009790506084888113067 0.04036959184976988968 0.033961034715038466991 0.023041060639286861655 -0.00093184723281611650785 -0.0037505926632764468621 -0.006470968105525299989 -0.0064709690728258790343 0.006934347815906415774 0.0055072919822494554795 0.0065884660647812908624 0.0071475867267481131215 0.0041544122663372297366 0.0048800960268858073823 0.0026757794916416289752 0.0026757802272287358261 -0.00043877873185885505952 0.021692909362393226341 0.013844092203059234908 0.0059239108130461747698 0.0092869986318109519485 0.0028034183360329837861 0.005247407231670351245 -0.016667755712837517557 0.020822868277745265608 0.010967979205833266326 -0.0050746672802729200433 0.0046205821503074537976 0.000657895671756168407 -0.0081966170386454408059 0.0018341849496417506407 -0.0016425189554154914426 -0.0085074630679097644481 -0.0085074473192321801995 0.0092256726364131659557 0.016437048436731459267 0.014954374714101322658 0.01250071288092319266 0.00081657241894509812342 -0.00052219164875635069867 -0.00038190808484596584131 -0.00038191849568026340744 0.00012506869806279793033 -0.0094550751328111859451 -0.0053238222659172671283 -0.0020131000199438485281;0.0021568209491906781446 0.0015814229779927213917 -0.0069829846890470236714 -0.0069829863971998208313 0.0095723407857357736828 0.039313272106218745405 0.033084112897729930913 0.022463676199895667857 -0.00093337130310550977218 -0.003673687069973243912 -0.0063154311097469084321 -0.0063154320521455389187 0.0067643973398613796086 0.0053607503790015116618 0.0064180480369315003747 0.0069672117283874502452 0.0039978273101129073799 0.0047015805371563457876 0.0025537659702275969896 0.0025537666853145666625 -0.00037632207786773304694 0.02115137873840686189 0.013518385239614964105 0.0058143417741734820456 0.0091293852146416640952 0.0026125690258544148788 0.0049999855251718671248 -0.016199760159754852257 0.020182985493776308544 0.010603150883186196474 -0.0049796040655940990508 0.0045146253531530150527 0.0005855831880490279355 -0.0080065414443212818557 0.0017273201268479536526 -0.0016540668934902742152 -0.0083271158442094778823 -0.0083271005226196181948 0.0090249189337929767996 0.016020621436421550454 0.014585695788601743886 0.012205450727473022426 0.00081961137492959793092 -0.00046684828769866584808 -0.0003010645371951626236 -0.00030107466293054701645 4.8085035764052714365e-05 -0.0093065019946253664529 -0.0052786907634208186935 -0.0020462239948883433754;0.0022473864870859974925 0.001653140915382823135 -0.0071926507958224063233 -0.0071926525587127860054 0.0098672142202232433067 0.04059322224104407878 0.034156023698430584834 0.023183705396684885225 -0.00095593470497530152324 -0.0037872626419642300456 -0.0065178606702529237951 -0.0065178616429018608816 0.0069823168691543922512 0.0055383123188393942188 0.0066283304462160649514 0.0071935832866677111921 0.0041476602788489483342 0.0048754544953127070678 0.002658199562542686023 0.0026582003014347052074 -0.00040947514722829641371 0.021829353114488730253 0.013943460331695585463 0.0059849470777970925628 0.0093852479896621397726 0.0027516853839266467927 0.0052129824003367981194 -0.016739114042812353739 0.020882876122046506451 0.010984359061288284307 -0.0051224993406546312155 0.0046567619811481884493 0.00063696712369199967856 -0.0082492184994570547096 0.0018076075416983763966 -0.0016856357383985916178 -0.0085808556519721568973 -0.008580839827767665004 0.0093020220703466539175 0.016536322893355891867 0.015051064658753009889 0.012589627476692890826 0.00083466691917287276492 -0.00050140435605226091591 -0.00034338470409423052813 -0.00034339516446287905336 8.3470995566696043694e-05 -0.009563890568818544588 -0.0054072435339825187378 -0.0020734705519589113031;-0.0023104496655319984449 -0.0016957569877356975727 0.0074539964366804678866 0.007453998260615075401 -0.010220395178570949868 -0.041997776812720023776 -0.035341336675675870393 -0.023993615667620527693 0.001004966236376937487 0.0039322228285092056602 0.0067540278830330677945 0.0067540288889083900659 -0.0072335467502565786377 -0.0057335115649724656753 -0.0068631447923403589642 -0.0074499937950093658712 -0.0042731414185240602921 -0.0050248208050342347414 -0.0027303946748355491236 -0.0027303954388400251269 0.00040431283416053837368 -0.022594635426762960106 -0.014439626863698720727 -0.0062091236202905771349 -0.0097284629534057677491 -0.0028152470554324679659 -0.005362686602188974222 0.017303621493505481205 -0.021577818844874880472 -0.011343928686706222786 0.005305687098363254077 -0.0048262935119222846736 -0.000659264046616062473 0.0085265172394079040419 -0.0018475967789036663522 0.0017648411767480487716 0.0088937429692952686688 0.0088937266084742443162 -0.0096392136813684935193 -0.017113106246070857591 -0.015579972065289359948 -0.013037035868576522107 -0.00086927457052164334127 0.00050788847992892891415 0.00033597635522363597082 0.00033598717217995838127 -6.6269024276525382178e-05 0.0099211344835867729119 0.005619764143545735377 0.0021685735271900507572;0.0012954986759024348947 0.00091231547718232752862 -0.0047854985035520637704 -0.004785499648379106831 0.0065072759150862748492 0.026239674077600368129 0.02211859662687067074 0.015072915053940549174 -0.00070336663969632420585 -0.0025178580875727689034 -0.0042581804683637838188 -0.0042581810985876230799 0.0045508470606979174039 0.0035716422235366656127 0.0042907412845933877443 0.004671468955205744164 0.0025192587614947291666 0.0029790283069814783162 0.0015405652048559505957 0.0015405656781326481589 -8.9954899121197674241e-05 0.014201197017059069908 0.0091395064995520736845 0.004025185287085554682 0.0063675342685868777798 0.001369914287695614798 0.0029865462753548913111 -0.010708204773887291736 0.013170609333350480688 0.0068318960977215535679 -0.0034404014977651906602 0.0030563044430209581649 0.00020969552138829267878 -0.0054266216202713867325 0.00096632926497396793523 -0.0012772250246169129968 -0.0056930693242742249141 -0.005693059145720158476 0.0061537899377026219344 0.010738731047455415957 0.0098090152993040528179 0.0082491296945156108306 0.0006281116473655255425 -0.00017575722480586491395 2.7032522376182025489e-05 2.7025805082145731265e-05 -0.00020488229083855076041 -0.0065265007210674168964 -0.0038240560242516611657 -0.0016405946381289450778;0.0021288339884755909902 0.0015588159591274040883 -0.0069251956499872726475 -0.0069251973426075769807 0.0094901942347840207576 0.038948911365206416446 0.03277952155780726462 0.022259904617719206144 -0.00092858437521019362906 -0.0036427401926337568162 -0.0062587902528086795592 -0.0062587911865857629931 0.0067032243753628178995 0.0053103257171058723674 0.0063585421137708130965 0.0069033740478584024527 0.0039527444267714951023 0.0046494872499814460243 0.0025213681118598642132 0.0025213688201065928389 -0.00036426641171650672463 0.020959736965941732495 0.013399259780563058803 0.0057681090670011281665 0.0090602438452155233811 0.0025675879110435310612 0.0049342550898763062883 -0.016044418844284494274 0.019979308198291884091 0.010491115877696945147 -0.0049404035100865852786 0.0044750337369051226485 0.00056917261708863328955 -0.0079378507119667006398 0.0017014262104366503336 -0.0016478980173366786048 -0.0082570657912351703295 -0.0082570506137717870204 0.0089481339984259118669 0.015874513165444633506 0.014454378977777397608 0.012097725964871275037 0.00081643192994447174628 -0.00045509046357198934324 -0.00028573795902959346973 -0.00028574798881607355039 3.4600890991196140876e-05 -0.009237744933079737597 -0.005246421701454209198 -0.0020424269073174537714;0.0022516611373246393606 0.0016646375204978686082 -0.0070747844741169008814 -0.0070747862141663465582 0.0097173699050672555227 0.040085155069838999953 0.033720502904581159398 0.022875966612343975187 -0.0009206245643386677972 -0.0037201569779936266916 -0.0064224025496117422007 -0.0064224035101800441838 0.006882836467183376869 0.0054677609849206297576 0.0065407126111266577009 0.007095247260409194047 0.0041311145125178952778 0.0048520977827482096589 0.0026634647653370237264 0.0026634654958938366875 -0.00044208433417182289469 0.021536766516752250955 0.01374199193424999188 0.0058764989227666720659 0.009214045149129723028 0.0027954447016042193938 0.0052217055441448681496 -0.016554910122442242915 0.020686150013639111045 0.010898401114110060212 -0.0050360946166398360552 0.0045855289533265133906 0.00065527989866470887689 -0.0081398262782156304007 0.0018286951735428070513 -0.0016240632950790699282 -0.0084422328242498637096 -0.0084422171834466954582 0.0091555927782414215504 0.016319653691513880817 0.014846276598377209158 0.012408707473640975122 0.00080855225961390581914 -0.00052262106766674744536 -0.00038637704296427089834 -0.00038638738216573403472 0.00013164041162997753339 -0.009378616740483205344 -0.0052768540397667073813 -0.0019902512754968806896;-0.0022637151698268191853 -0.0016709920411211672854 0.0071529520869401544761 0.0071529538442706170481 -0.0098210409481724603165 -0.040479164480105182811 -0.034054416127753103782 -0.023106237680498322579 0.00093805370884140310776 0.0037638898698303044354 0.0064907527481605350669 0.0064907537180608990829 -0.0069551144896760064285 -0.0055225152664859864654 -0.0066071501856267509517 -0.0071683489960271320335 -0.0041603035324495035024 -0.0048876040173432546906 -0.0026771727673054828388 -0.0026771735047506394281 0.00043422391331719587199 -0.02175473900521088938 -0.013885768485579775763 -0.0059450935753711069143 -0.0093201091076208844588 -0.0027993778060547490176 -0.0052506086889384899485 0.016709095509974198485 -0.020869708851245630243 -0.010990080399887984866 0.0050916730555215800741 -0.0046351529850571053515 -0.000656104565439722732 0.0082194506252585373268 -0.0018325032007374660124 0.0016531435530570792302 0.0085353066362661746125 0.0085352908471776449406 -0.0092552790773554449028 -0.016483125796655465067 -0.014997451897373751881 -0.012538190678627538985 -0.00082110171652058838374 0.0005195236883990333402 0.00037589693023914636742 0.00037590736783555929804 -0.00011807305762369000538 0.0094905002363801886645 0.0053476154398685365673 0.0020270996602240322175;0.0017416051728382847194 0.0012531316435006728798 -0.0060138332157831757285 -0.0060138346707641543096 0.0082103442790301146142 0.033411136409494689159 0.028140454617509396557 0.019141766265343342079 -0.00083957316451867573456 -0.0031596031490383376383 -0.0053907088267911677792 -0.0053907096288239760018 0.0057679799392564897603 0.0045490036884431933259 0.0054558342288046389815 0.005931285151850064323 0.0033048970135609672359 0.0038970944750267855206 0.0020689634660688207418 0.0020689640713195422451 -0.00022017972461858530283 0.018027317073631653893 0.011560799941440474264 0.005030606541183514635 0.0079356635659558940471 0.0019820552673948019749 0.0040264778377457708519 -0.01370546290398243737 0.016962118238385445051 0.0088541711371695058785 -0.0043096731881172925527 0.00386266785565963491 0.00037425989040012379912 -0.0068650514109942538735 0.0013528302814891544296 -0.0015125865751583556298 -0.0071602587721573364085 -0.0071602457771719786594 0.007750197335722992277 0.013643561838050811269 0.01244138208768017298 0.01043626483621458087 0.00074791648781772127573 -0.00031072844023695097605 -0.00011127122547995626557 -0.00011127980614937322461 -0.0001094718301994871551 -0.0081101070340571460721 -0.0046776302290718807173 -0.0019136346942317202825;0.0020985169354190719854 0.001534392007354583613 -0.0068615693086516984719 -0.0068615709842363625456 0.0093998936119585509846 0.0385496595660056382 0.032445673544483806527 0.022036426194171745974 -0.00092321058119629968372 -0.0036087316102354711003 -0.0061966762573078659065 -0.0061966771816296829095 0.0066361594968223375918 0.0052551327113101575089 0.00629336810517234016 0.0068334218059547665799 0.0039036783502494169784 0.0045927551825089459048 0.002486220646622507198 0.0024862213473824928273 -0.00035140067313740348679 0.020749572834707220859 0.013268483198635373094 0.0057171437875201810627 0.0089838002520926316108 0.0025191961536793392416 0.0048630607617145410471 -0.015874380778549933291 0.019756841407285938295 0.010368960140480948037 -0.0048971118903105518433 0.0044315561519165710264 0.00055171782146680133693 -0.0078622893464923328255 0.0016734466507100714209 -0.0016407751352471165902 -0.0081800280291630406843 -0.0081800130095731476976 0.0088637273040019122494 0.015714326597267215535 0.014310339755768843387 0.011979475940823349628 0.00081276829707379444605 -0.00044251477897209735542 -0.00026947219712460422159 -0.00026948212185105564591 2.0375983522917287099e-05 -0.0091616486913318039703 -0.0052103491694176417778 -0.0020376211787341840138;0.0021730509194826303811 0.0015927777791927850287 -0.0070441431446972447433 -0.0070441448673575915787 0.0096554140857166952105 0.039647569922316792945 0.033365931076130783683 0.022655787504038731039 -0.00094402036502046540994 -0.0037073149458299197757 -0.0063710031187497930677 -0.0063710040690703557617 0.0068236271358667844808 0.0054070852432113762284 0.0064736728508346629007 0.0070278285798911748622 0.004029072837508917114 0.0047386002275716593637 0.0025724463626349510816 0.0025724470837335897816 -0.00037655591472490448001 0.021332780906607905907 0.013635442986494524312 0.0058664045124084936503 0.0092092508878513276022 0.0026304863411224718717 0.0050382744071066892094 -0.016335141434973023816 0.020350738417517239692 0.010690562817358809783 -0.0050224920466698848992 0.0045544102170589871592 0.00059155607216828092615 -0.0080725917831727909968 0.001738547213333589735 -0.0016713365281332439975 -0.0084003700784644284166 -0.0084003546284968297342 0.0091040061437195184818 0.016157536121743726332 0.014710951139422352024 0.012311034211112596368 0.00082732785352389434565 -0.00046934571360755106143 -0.00030097898505004368067 -0.00030098919603858899537 4.5738547946199605162e-05 -0.0093891951526988357002 -0.0053270379411608009476 -0.0020668197505960797696;-0.0022852241613339659143 -0.001678283984845899959 0.0073561722926814851822 0.0073561740935373133576 -0.010087728475044398582 -0.041465819202278673961 -0.034892750943419321985 -0.023687606878140941846 0.0009872027470118054527 0.0038779880138250584672 0.0066650274883888688607 0.0066650284816876593022 -0.0071387734266015875559 -0.0056595458064994854513 -0.0067743059945749549422 -0.0073531143590337723348 -0.0042242096137777651946 -0.004966752420381840942 -0.0027015153052361530125 -0.0027015160596924985004 0.00040476063504221265711 -0.022305572273059334765 -0.014252794024343535054 -0.0061255647399349189008 -0.0096009051928435448081 -0.002787787794033351127 -0.00530280672039129021 0.017088855916820445968 -0.021311866770724947895 -0.011205508649576735591 0.0052373606699391526964 -0.0047625370722607076809 -0.00064935583133471103806 0.0084220783715547257314 -0.0018307143036679616489 0.0017364524025744753656 0.0087764876233150344864 0.0087764714662154283409 -0.0095127056475839948807 -0.016895058436949425551 -0.015380320948867669609 -0.012868523875340258378 -0.00085687836604771833171 0.00050422157526160778142 0.00033672988960048341441 0.00033674057112061919934 -7.0649622296683117556e-05 0.0097886783557399100614 0.0055419916057450257715 0.0021350345615537688268;-0.0022438311063833257103 -0.0016484615015778939558 0.0072137768952916818052 0.0072137786618773833136 -0.0098932670463084352447 -0.04067358954982554925 -0.034225635784225549862 -0.023233957195136285129 0.0009633570521336083832 0.0037994081165193286861 0.006534002567796284508 0.0065340035423649585333 -0.0069989450095011302572 -0.005549453778687681374 -0.006642459353429741066 -0.0072097131180588244076 -0.0041472211105557611407 -0.0048758967768108181506 -0.002654035084145070153 -0.0026540358242757660333 0.00040105111353957886801 -0.021877312987126643767 -0.013977669408329099557 -0.0060050108406178945991 -0.0094174019920548312362 -0.0027376092180072895271 -0.0052048667008838802803 0.016766122416527449307 -0.02090815624165765288 -0.010993239452767708877 0.0051383286700746547832 -0.0046690558378532521361 -0.00063114951932393499514 0.0082675842928565442674 -0.0018004939711218528701 0.0016988753449211160557 0.0086054924654603119627 0.0086054766133617701523 -0.0093277895180732921243 -0.016571461750096817128 -0.01508490010052316796 -0.012620281646917442045 -0.00084026924236998621048 0.00049551156784488354767 0.00033225698113319428618 0.00033226745983667998639 -7.1349641854433939179e-05 0.0095992068753636156792 0.0054336072178130098362 0.002091870633050286251;0.0020315932748905841942 0.001481410700769528405 -0.0067064196274365080533 -0.0067064212624701512525 0.0091817214362709832082 0.037602978969131929665 0.031652827529834545728 0.021503809004731821303 -0.00090756544126067409308 -0.0035256986159604170733 -0.006047814244066161693 -0.006047815145933883689 0.0064758081173599693972 0.0051244515839370006691 0.0061385393586547197867 0.0066667531302975879121 0.0037925030445052775215 0.0044637222396997295118 0.0024084928696580629355 0.0024084935528006392973 -0.00032639370954760791492 0.020248428833996537368 0.012954455105963925271 0.0055913993035140293827 0.0087935764524256169322 0.0024169055006916695567 0.0047059363649225383411 -0.015474667399428926676 0.019239452378441195685 0.010087561453674714212 -0.0047905238938100195775 0.0043267952514726591359 0.00051587183821024914284 -0.0076808215486208258546 0.0016134505183962991916 -0.0016180086641181732048 -0.0079928124935836290105 -0.0079927978466257185858 0.0086592138267312761257 0.015333047878765314678 0.013966380884584086997 0.011695669718431226519 0.00080151264178091551332 -0.00041710331745362560964 -0.000238411965715763411 -0.00023842164270707159055 -5.5414068905042236873e-06 -0.0089707475425042215028 -0.0051148380738645950194 -0.0020171327274747918173;0.0022738201107187013157 0.0016714918247755924333 -0.0072945109852732845437 -0.0072945127722234158127 0.010005402465644207266 0.041147753570137064749 0.03462361441024731229 0.02350262999753263346 -0.00097425638834800821521 -0.0038436249575750586552 -0.006610499919820249197 -0.0066105009055865311673 0.0070809853553517017669 0.0056153600895812684143 0.0067208604140206731556 0.0072944715729592107464 0.0041988490177863376646 0.0049361766377082789969 0.0026884907815889003482 0.0026884915304378463087 -0.00040918677027067376422 0.022130601826287052414 0.014138104878955214463 0.0060719000582323805898 0.0095181516156640760123 0.0027805077046962238876 0.0052756035784053932625 -0.016963137030426247986 0.021160309182653845583 0.011128780673100725773 -0.0051937225518327604853 0.0047231075199340262147 0.0006471765496210378759 -0.0083582590894657939756 0.0018254260127174620678 -0.0017150270772131588713 -0.0087029354237066463423 -0.0087029193870068709271 0.0094337538696460977727 0.016763588678527910347 0.015259117353870083403 0.012765182098256498341 0.00084758886958537997102 -0.00050526613827800426464 -0.00034270348780402116367 -0.00034271408940105582523 7.9015076471158603513e-05 -0.0097018053231391170044 -0.0054881626052046619813 -0.0021082961444852054388;-0.0022730251847062443553 -0.0016713801737434012644 0.0072845144272139037561 0.0072845162120603896422 -0.0099923598427619844675 -0.041100228731823409967 -0.034583173383780918542 -0.023474494951904407991 0.00097173822409696460328 0.0038380037615422584948 0.0066020206781504950713 0.0066020216627887566216 -0.0070720665454047674722 -0.0056087628716369412191 -0.0067127882195680572269 -0.0072855258017912776294 -0.0041960255830745495087 -0.0049326352413901859359 -0.002687595800422457569 -0.0026875965484586660653 0.00041087800536210175931 -0.022103929868882085663 -0.014120231197449446131 -0.0060629648341761124136 -0.0095041983402682234799 -0.0027816669483685246833 -0.0052736547618004135651 0.016945021396965291582 -0.021139500921229174846 -0.011118800208720832148 0.0051865220141778002605 -0.0047168871575670578283 -0.00064775368631286801748 0.0083484033447682980122 -0.0018258269257385886623 0.0017107226917501879709 0.0086910925108890230151 0.0086910764918245834998 -0.0094211371148689836835 -0.016743674474789242701 -0.015240555126047980461 -0.012749100949723795456 -0.00084574195094505707961 0.00050621614645081141823 0.0003449532464497200631 0.00034496383636652155512 -8.1677200144587071848e-05 0.0096869378945476387194 0.0054783180424561993965 0.0021026575764106405358;-0.0020985977191749429112 -0.0015332212378659320056 0.0068812026685955672567 0.0068812043480995224373 -0.0094250820906727587889 -0.03863731278176783801 -0.0325206104773699059 -0.022089077618473434289 0.00092872668206615924692 0.0036198236398636216005 0.0062128072900851042532 0.0062128082164921039771 -0.0066530303258838024635 -0.0052672937796651294814 -0.006308384667767315615 -0.0068501929851400205143 -0.00390741276633423118 -0.0045977115354598153615 -0.0024862449912490631673 -0.002486245693468392727 0.00034668182023851181958 -0.020799602097848809285 -0.013302607968935677499 -0.0057350564456344309272 -0.0090120834419992711106 -0.0025135059070192930855 -0.0048633102264177587026 0.015906726570607251925 -0.019792339462375775627 -0.010385043662569721362 0.0049114505722024212261 -0.0044434850946637139898 -0.00054914642062652777987 0.0078810479172052184255 -0.0016708611974892697769 0.0016504275697933423837 0.0082032044869159888301 0.0082031894353422358385 -0.0088882808260234841269 -0.015751499512225750066 -0.014345297555556663083 -0.012010144666862732077 -0.00081694585924988773196 0.00043946627506992561474 0.00026314751032213706686 0.00026315745617374306821 -1.3205343252551893842e-05 0.0091920562232072188652 0.0052313658865885785676 0.0020506389084360390936;0.0018198717572553871173 0.0013147984674037388117 -0.0061998750590408387151 -0.0061998765624864480422 0.0084713792941034267436 0.034538477814984896996 0.029085009618635485062 0.019776883267119915039 -0.00085683944705973154668 -0.0032571315570899760615 -0.0055666421912280664858 -0.0055666430201707969155 0.0059575971633706158864 0.0047032640997743731942 0.0056388652105553629251 0.0061284238187522526581 0.0034366564172664143019 0.0040501876805505701226 0.0021610333276864041908 0.002161033953902644078 -0.00024949514546248723881 0.018624226364219644697 0.011935050542246514182 0.005180750262278283752 0.0081665634303095795826 0.0020993664157069780347 0.0042096703958794104081 -0.014182114279197582593 0.017575047515807795673 0.009186001226136757819 -0.0044394228278884532643 0.0039870800625085266178 0.00041094933733648694903 -0.0070859024328868138939 0.0014238105326409579952 -0.0015401050572719915659 -0.0073835177886728067809 -0.0073835043485980860964 0.0079940456536884869909 0.014097728437586358116 0.012851176066693344169 0.010774486002779637417 0.00076224712816260235208 -0.00033952041294500740062 -0.00014577885319673407382 -0.00014578772898384031163 -8.1197422658681411931e-05 -0.0083412841825111511823 -0.0047948836870439328142 -0.0019411251425839272291;-0.0022499638581916199878 -0.0016670220404840093657 0.0070121249644527839165 0.0070121266917939663321 -0.0096365646738286996759 -0.039799829214602837346 -0.033476944577597783637 -0.022705383484992520959 0.00090338111383121981642 0.0036846237144670416705 0.0063702553458166184114 0.0063702562996152010608 -0.0068282180132901255584 -0.005428099089395055192 -0.0064918741342099165262 -0.0070408222225885764428 -0.0041174832416182461509 -0.0048343641291682254435 -0.0026616926122349985999 -0.0026616933379975723367 0.00045576160103763670942 -0.021374832686831355538 -0.013632170907868721918 -0.0058197250761363311655 -0.0091251521007058092327 -0.0028098172293126600502 -0.005217002099918082586 0.016448445690869419739 -0.020567355502136973333 -0.010843403989162702858 0.0049906645771189616853 -0.0045469718489677393367 -0.00066133072604466331366 0.0080799716321851428047 -0.0018351742226678012613 0.0015944539811685873656 0.0083682311562433085023 0.0083682156200023550402 -0.0090770592820190489081 -0.016199206903330501395 -0.014733319334903882333 -0.012309997187806615351 -0.00079598533024341521815 0.00053091997870455514674 0.00040435327729078195244 0.00040436354726804829302 -0.00015227492243357208432 0.0092831391011482227577 0.0052118106827501384237 0.0019509809380400856566;0.0021415080822418091494 0.001569279827611293112 -0.0069478043398198546798 -0.006947806038766024192 0.0095228298880406930804 0.039098068916184211541 0.03290390765440744103 0.022342658392067105827 -0.00092973228110020881935 -0.0036547293319916878372 -0.0062815082171277843853 -0.0062815091544331791429 0.0067278622504666823687 0.0053309550639414407525 0.0063827654311900119607 0.0069292393164805945668 0.0039725058069575306177 0.0046722039995359121445 0.0025360576895376921169 0.0025360584006187442303 -0.00037060076348420278912 0.021037467928887446794 0.01344702231889648332 0.0057857885436143194 0.0090864320194485540677 0.002589012207094440899 0.0049640023809132405308 -0.016108937327526093308 0.020065152319264790981 0.010538960347207314977 -0.0049555633616709653805 0.0044907949166785770048 0.00057705330138653812815 -0.007965588541572208095 0.0017136457269714489363 -0.001648922728980222038 -0.0082845804535774461574 -0.0082845652166110873849 0.0089784504225653566367 0.015933954430739093872 0.01450751816868213126 0.012140952387642216931 0.00081711308111664146103 -0.00046097437946509130192 -0.00029383780585355725014 -0.0002938478752785965843 4.2020000935664049825e-05 -0.0092633639668536806033 -0.005257214939260019225 -0.0020417739789649392602;0.0021620753761200104184 0.0015847960089347787761 -0.007007557820687991719 -0.0070075595344877249226 0.0096053536964568891898 0.039442735843252696437 0.033193510409751283974 0.022538637948445371106 -0.00093816760111380679329 -0.0036872715415619495768 -0.0063373372596130395779 -0.0063373382050816483638 0.0067876658130076811606 0.0053786961704112411925 0.0064396954320551083248 0.0069909027167793288265 0.0040088276063817377542 0.0047147457350526639219 0.0025597996954839236788 0.0025598004128702940389 -0.00037523553617193049778 0.02122223628063204387 0.013564562266602074245 0.005835552870632251983 0.0091621190423259602637 0.0026169520420797460179 0.0050124053432419567178 -0.016251416638366201345 0.020245861426672086963 0.010635318776321641895 -0.0049969773267911866618 0.0045304056651699863012 0.00058688255611926407919 -0.0080324714324455440129 0.0017303064430961854255 -0.0016620164456281432113 -0.0083564614180828677287 -0.0083564460471885221998 0.0090564858554012580422 0.01607395595938029137 0.014634722651772028024 0.012247073580354882888 0.00082312622298935287334 -0.00046690763444362748348 -0.00029948337180457662056 -0.00029949353025460857336 4.5565882689202717455e-05 -0.0093406730759378851781 -0.0052994650973772761127 -0.0020560725156922674689;0.0022442617517015516979 0.0016574602818672928839 -0.007078409756942462619 -0.0070784114966513716691 0.0097198818882601612651 0.040072934645908081519 0.033711897981879922204 0.02287265343458954811 -0.0009246744211132527794 -0.0037226355874006404612 -0.0064229098943927968868 -0.006422910854685495545 0.0068828505374111921891 0.0054660620883761170188 0.0065393642983640207569 0.007094449472715110179 0.0041227189018922440894 0.0048430339544229799448 0.002654898851353536867 0.00265489958150286285 -0.00043435548363411895668 0.021534087641756329001 0.013743229716795922132 0.0058814624048002415654 0.0092228838216105550607 0.0027780763576090009882 0.0052045606452939862166 -0.016544943189274113199 0.020666320170824190039 0.010884155484358488605 -0.0050395652316028560075 0.0045865882152958444701 0.0006485150074233008051 -0.0081396301857145671177 0.0018193533178544286574 -0.0016317010691400512645 -0.0084459421435341928974 -0.0084459265101271500248 0.0091588410397946354996 0.016316656370886403749 0.014845072735714524848 0.012409634335426050766 0.00081165534383346234649 -0.00051664642234621382857 -0.00037629710786252462251 -0.00037630744198649844013 0.00012123324120118342566 -0.0093896258118968557033 -0.0052884818859518338552 -0.0020017147810699980996;0.0018380558018492457531 0.0013274910656739078059 -0.0062688450569651438596 -0.0062688465767889436572 0.0085650268088458183374 0.034914927364183785674 0.02940240522341374535 0.019993299228971975895 -0.00086820151251383343317 -0.0032944092510391624271 -0.0056286971416382915873 -0.005628697979551806202 0.0060237918164210042804 0.0047550592511386054195 0.0057010851093699105308 0.006196224180258584277 0.0034719933119857796996 0.0040920472853359073778 0.0021822372175285017874 0.0021822378505160539182 -0.00024991432713170226706 0.018828426416720001058 0.012066778287201679332 0.0052392561487498894371 0.008257490300665122282 0.002118746367158452857 0.0042521282418029882066 -0.014334880044700877913 0.017763496317050105067 0.0092838752376741915523 -0.0044883369415564889141 0.0040315713075941466206 0.00041598264744890532316 -0.0071617341398886305223 0.001436665576303604178 -0.0015593576451926249513 -0.0074658782117205495232 -0.0074658646265766933151 0.0080829833014742329123 0.014251920507787989995 0.012992197423957933464 0.01089330817436582298 0.0007712039537795313017 -0.00034199373470703443162 -0.00014520330328511021358 -0.0001452122751539579185 -8.4334731307214420588e-05 -0.0084350988435724586628 -0.0048499647475904929944 -0.0019648880629130763623;-0.0022268030505399878487 -0.0016360182260127906651 0.0071579574343004761725 0.0071579591873343366079 -0.0098168063458325509341 -0.04035996730395150639 -0.033961701473799163487 -0.023054716978554160717 0.00095439253817479246991 0.0037687029414409049105 0.0064824190791222015273 0.0064824200462733272063 -0.0069438405172528245082 -0.0055059030182837255876 -0.0065903653326512502339 -0.007153118155365054999 -0.0041160395961890852354 -0.0048391805547364228138 -0.0026344742344369103532 -0.002634474968878551971 0.00039883457469423239843 -0.021708158089452884304 -0.013869287012741440823 -0.005957950366967689794 -0.0093457965698899980039 -0.0027162201290676949925 -0.0051646506683586694206 0.016637854946477941692 -0.020747073401574115531 -0.010908204347168682161 0.0050995502374899101192 -0.0046323142253158885659 -0.00062344816793642829789 0.0082065241300648145845 -0.0017876601304219444551 0.0016848055200654346673 0.0085384214441781777771 0.0085384057131198277252 -0.0092551832179891685426 -0.01644355043462002175 -0.01496827664347765742 -0.012522473396442307045 -0.0008339918941086728061 0.00049153359736204009414 0.00032956745586381854711 0.0003295778540850403276 -7.0670128115026019985e-05 0.0095254787292903906476 0.005391922868678357926 0.0020758981633435900221;0.0022506042495761017716 0.0016605669562880513886 -0.0071232704170553270279 -0.0071232721666000713492 0.0097792129960678451928 0.040296850636349752783 0.033901788487800808836 0.023003794472490179945 -0.00093489559237466119106 -0.0037477517154644863877 -0.0064619308062529882616 -0.0064619317718512155058 0.0069240774532475903372 0.0054971712636959317588 0.0065771633683738223511 0.0071360891251622165024 0.0041387707525448753226 0.0048626416421375211196 0.002662104591075246246 0.0026621053251251985787 -0.00042931530483615945332 0.021658256250502376516 0.013825349082225289743 0.0059209555440913330671 0.0092840639846752219533 0.0027790431124050181573 0.0052197931606260388609 -0.016632196115421653271 0.020769603696391907011 0.010935419917935930434 -0.0050715385856195567549 0.0046149668708761314856 0.00064845203961179202767 -0.0081850827779394140504 0.0018208551819535380868 -0.0016488409093230451882 -0.0084993110980393533904 -0.0084992953805524962263 0.0092159496331933564439 0.016409709910729080445 0.014931238889385779756 0.012483576906716004062 0.00081904943465239651076 -0.00051443566740262116829 -0.00036957405600952065268 -0.0003695844459059018333 0.00011272478299289129505 -0.0094542749565451628807 -0.0053297129973053818455 -0.0020235839733929389742;0.002251912128391160995 0.0016570686517801082229 -0.0071977114923116739323 -0.007197713256857789059 0.0098750066767744962282 0.040633085301667835887 0.034188981479930720397 0.023205199443647066271 -0.00095555102016631914864 -0.0037898947856251892843 -0.0065235497321399589163 -0.0065235507057256605576 0.0069885773959474650763 0.0055438569345072769012 0.0066347231083315671638 0.0072002955082085340691 0.0041541349311973825228 0.0048827919778064946682 0.0026634184941548419076 0.0026634192338351953336 -0.00041243416767598078173 0.021849480908709965898 0.013955320784452768593 0.0059885458648514080029 0.0093902329829805269296 0.0027602336338780285828 0.0052235842054492963304 -0.016757158847017266518 0.020908119083108873265 0.010999017504861031275 -0.0051256673403956443807 0.0046605740864946081439 0.00064027505477546242316 -0.0082561623163580101503 0.0018123356979633906301 -0.0016845561085269730294 -0.0085871634778061749216 -0.0085871476372904476798 0.0093091191747885701502 0.016551879248081689117 0.015064713006537286746 0.012600395856252751339 0.00083427591227544094406 -0.00050396860205531590366 -0.00034724725290686235405 -0.00034725772418586244028 8.7220754067152058168e-05 -0.0095683664653861393717 -0.0054078681250902590344 -0.0020712373777723113409;-0.002257165673869413608 -0.0016596433577331952056 0.0072348468592572786826 0.007234848631947261334 -0.0099241214161714871866 -0.040818449174405947721 -0.034346178395743630352 -0.023313761613473996115 0.00096398372317245547506 0.0038106604664016863714 0.0065558304070315659082 0.0065558313850113429308 -0.0070226855796224991677 -0.0055695969668039550446 -0.0066659989583073096103 -0.007234748132351464904 -0.0041674363150757485347 -0.004899038034378164902 -0.0026693976667493423717 -0.0026693984096589711517 0.00040827515586105430452 -0.021952263500668745683 -0.014023292307043171839 -0.0060212280365481022151 -0.009440911732322048236 -0.0027610164885270406868 -0.0052361807284162301124 0.016829400647537750418 -0.020993617873733654011 -0.011041448186523944441 0.005152149641498461087 -0.0046840503908432435526 -0.00064014568116777697312 0.0082938579849157461482 -0.0018135930406439370634 0.0016987324524917336421 0.0086313359138539460375 0.0086313200037114231472 -0.0093563879920540091173 -0.016628913636588450731 -0.015136042922680637349 -0.012661603538280819664 -0.00084040303345051838024 0.00050213154073215041529 0.00034167231678572520604 0.00034168283424008207049 -8.0167463824991022116e-05 0.0096219006533136836046 0.0054420141129338118341 0.0020893529542301593482;0.0018368406661920493993 0.0013274714619271998223 -0.0062511875728089374982 -0.0062511890889419890679 0.0085420439025729235499 0.034831730257573904896 0.029331559054197542391 0.019943940860871037929 -0.0008637598525719515901 -0.0032845494168159215104 -0.0056138517453461567533 -0.005613852581279335334 0.0060081816005701053907 0.004743537580790492883 0.0056869736959387160585 0.0061805755705378944906 0.0034672209262350743401 0.0040860421950394635454 0.0021808931335437378544 0.002180893765115272942 -0.00025310365205542497335 0.018781591447124434957 0.012035300398302037697 0.0052233949759090646248 0.0082324867423427747215 0.0021214594185182877525 0.0042493538014049727497 -0.014303343127773565646 0.017727573995138176666 0.0092668214375336618177 -0.0044755245655525638035 0.0040207155725359581058 0.00041750195306206066724 -0.0071441598926387898938 0.0014376231090330645473 -0.0015515790020253902512 -0.0074449419555669832382 -0.0074449284012651452055 0.0080606977686202233718 0.014216955391831138586 0.012959566582019032416 0.010864988125407856745 0.00076775041699373683564 -0.00034396844994761784434 -0.00014960207735305731773 -0.00014961102884706236759 -7.920002270909254165e-05 -0.008408490117924169796 -0.0048321638163637400595 -0.0019544857123325420738;-0.002266421384163772642 -0.0016767015482459183412 0.0071030414268151891369 0.007103043174603408845 -0.0097578474925387684996 -0.040267446262596075235 -0.033872700681910332399 -0.022977498372581058733 0.00092270130279853499865 0.0037353896542631852794 0.0064506019891229417901 0.0064506029539896344097 -0.0069133383691287299613 -0.0054931037782025163643 -0.0065705291256688514931 -0.0071271575708985023673 -0.0041544035181593818098 -0.0048789244103426970822 -0.0026804363014714680316 -0.0026804370354682298394 0.00044885657395057914796 -0.021632287265224023343 -0.013801075566757867522 -0.0058989782768311630617 -0.0092472675431475147984 -0.0028197965071988244541 -0.0052563039177664586804 0.016633003769246614695 -0.020789543885426125386 -0.010955718865293225667 0.0050550094526466199038 -0.0046050908376526087859 -0.00066448470247427657287 0.0081736762912508562767 -0.0018424992685601821688 0.0016263689984047954677 0.0084766842893717816998 0.0084766685763211554322 -0.0091934378469833745451 -0.016392582369711857643 -0.014911672025750298543 -0.012462162982183503518 -0.00080980244630688910656 0.00052911231495650454682 0.00039511612314824370775 0.00039512651051439002343 -0.00013950400011948928237 0.0094114636620868871719 0.0052915358096575918281 0.0019908338768009161725;0.0022533445246628023596 0.0016566362534779853054 -0.0072257036560574409989 -0.0072257054263801722901 0.0099112993986639613686 0.04076312140181878596 0.034299820627968991005 0.023282587088276143761 -0.00096292133839196195847 -0.0038056758990480353544 -0.0065470240185905026475 -0.006547024995264385909 0.0070132154440974694629 0.0055619063899034759668 0.0066568829939236268123 0.0072249249313193902866 0.0041610692153947227701 0.004891639670661646587 0.0026650042654827138348 0.0026650050073661630395 -0.00040696053245385720252 0.021922895650749809476 0.014004833099362542018 0.0060137480948758295987 0.0094297139613093022836 0.0027552186371263723101 0.0052271804622616487718 -0.016806174018092593508 0.020963546799704694396 0.011025109348701191136 -0.0051459244419192265441 0.0046778614689518749001 0.00063796250877540131366 -0.0082833852500521550771 0.0018102610825173573884 -0.0016972392774332498936 -0.0086202683611872887859 -0.008620252472712482128 0.0093443144087975854584 0.016606590857530308114 0.015115874578901412548 0.012644922756610369255 0.00083970984107022475767 -0.00050071407722314300454 -0.00033997516129230759101 -0.00033998566431394668498 7.8775401368313073937e-05 -0.0096105941775617310247 -0.0054362833997531794308 -0.0020880155992290629942;-0.0015532793906533114234 -0.0011078737796748078931 0.0055169977290100216671 0.0055169990574721120002 -0.0075192095736791803376 -0.030480017639648790406 -0.02568074414670154168 -0.017482086385655477151 0.00078637895855227554331 0.002899243323498563573 0.0049289010394751291838 0.0049289017713990135316 -0.0052713311287330057858 -0.0041487606885762390307 -0.0049793687770544924412 -0.0054166382928020990681 -0.0029779276447889826279 -0.0035156478768757432399 -0.001846619556844802338 -0.0018466201079982743748 0.00016068821609756454264 -0.016466717791601696158 -0.010575691243872833297 -0.004625281438961796783 -0.0073068354376957184507 -0.0017159617190463394027 -0.0035866406562818334454 0.012476714923421875283 -0.015399847902480006887 -0.008017093182569278581 0.0039598794421117052347 -0.0035345418869399984271 -0.0002976707108585048599 0.0062822370356849961681 -0.0011876102634670229058 0.0014231150311472871937 0.0065658449574588261324 0.0065658331148794862181 -0.0071027762237641962895 -0.012458107538569681422 -0.011368375117464558921 -0.0095463436687665027824 -0.00070239345484422364106 0.00024983505233583120763 4.5135875835586876761e-05 4.5143693390986031294e-05 0.00015845861638787725554 0.0074762781695124546841 0.0043415208290603791302 0.0018136560123971014365;-0.0022639733580915870521 -0.0016685308048375706042 0.0071955365174806770051 0.007195538283322049436 -0.0098756989608193290753 -0.040669635555103514357 -0.034217225441957752063 -0.0232205918761798219 0.00095008192613081469697 0.0037880377819192599838 0.0065258485668778475064 0.0065258495413031483712 -0.0069918161674990715604 -0.0055489659147821088908 -0.0066398112099581504952 -0.0072048288053732350428 -0.0041684896152012259479 -0.0048984704111964452039 -0.0026773593866453639784 -0.002677360127266927188 0.00042411621716514002686 -0.021863340239667853476 -0.013959781420744846181 -0.0059838648941086024571 -0.0093810487568840028594 -0.0027875708686300611737 -0.0052516701855786496189 0.016779534367895834052 -0.020947223072433844571 -0.011025340724828813083 0.0051226829824611826505 -0.0046611807095596046596 -0.00065105833689839138611 0.0082598336104036523819 -0.0018270460941918332913 0.0016739588540019033954 0.0085855217735528281675 0.0085855059149691301951 -0.0093084885513345511088 -0.016563797740105159345 -0.015073295651125799555 -0.012604700378925724064 -0.00082995028251895504225 0.00051319758256737092999 0.0003625600665728713457 0.00036257055013434074438 -0.00010290776464024364194 0.0095560969948399829971 0.0053928097509889820829 0.0020549325828999598365;-0.002214369959035669775 -0.0016243179141239008287 0.0071583842512328898014 0.0071583860025680578348 -0.0098137659650879595363 -0.040314208689825159482 -0.033925677525278231939 -0.023033993953282698441 0.00095953952897624814229 0.0037696111244298344603 0.0064785791864571205118 0.0064785801525484741289 -0.006938964074329510151 -0.005499539276634235821 -0.0065837576503350704951 -0.0071469183526866510853 -0.0041008910016814845503 -0.0048225453262325836123 -0.0026200713665748744802 -0.0026200720999104152101 0.00038719287501383896225 -0.021689290520943229484 -0.013861579202775187875 -0.0059611622010813337599 -0.0093527177401381694777 -0.0026884955478096547905 -0.005135604964567734923 0.016611743294711468766 -0.020703448673778532263 -0.010879567218656242128 0.0051012832975148528908 -0.0046305624011754283401 -0.00061253174366718830292 0.0082010251639240468874 -0.0017726937764976319171 0.0016948813377809040202 0.0085380172463415497652 0.0085380015368860962682 -0.0092536094272665219557 -0.016427868671270818429 -0.014956240844800990433 -0.012515246030313160672 -0.0008381153876039591907 0.00048224244752187000714 0.00031429644011753073195 0.00031430682370888390681 -5.5090816127326488897e-05 0.0095353832767311082208 0.0054055745174179034573 0.0020915755221686876605;0.0022990560453469517307 0.001688023876543464849 -0.0074073088035630152079 -0.0074073106165756606029 0.010157264806306836452 0.041746368052491822365 0.035129198588994714481 0.023848704730254865342 -0.00099622556199603813643 -0.0039063021719213221819 -0.0067117673650128155394 -0.0067117683649432916329 0.0071885857862580291103 0.0056985540299927120791 0.0068211045140906274159 0.0074040965292493160152 0.0042505788782064048148 0.0049979757369926838817 0.0027173580162314341785 0.0027173587757379222621 -0.00040512384185324365471 0.022457714633274852845 0.014350899602665907057 0.0061690998067242619821 0.0096672657105565471675 0.0028035658843772290512 0.0053356082550247438748 -0.017202512199913498614 0.02145318883548238964 0.011279365746160705669 -0.0052730064901831755209 0.0047959663758477509565 0.00065509162678968147018 -0.0084769844208144422282 0.0018403122119063600615 -0.0017507814575810336927 -0.0088378300662346580274 -0.0088378138014842851089 0.0095789471046280397215 0.017009897900210412675 0.015485351991623654347 0.012957022835959512014 0.00086315416726718153378 -0.00050661118012833273282 -0.00033711421142162923889 -0.00033712496452152645619 6.9152891882528352775e-05 -0.0098574458896693497451 -0.0055819690846546426641 -0.0021517752834472581545;0.0022543511603991157888 0.0016662419111541861179 -0.0070892943714957572243 -0.00708929611481790619 0.0097367444396460611777 0.040160027127770933641 0.033783855514786090279 0.022919506394135615718 -0.00092367645285708983773 -0.0037282501197399404123 -0.0064352421617689019653 -0.0064352431241096793441 0.0068964435535788784146 0.0054781662558087791323 0.0065532975115560783419 0.0071090555195253424259 0.004137086604632658933 0.0048592970177467791418 0.0026665317270965537347 0.0026665324589733260287 -0.00044104312846963343543 0.021577955607788315562 0.013768990087493590546 0.0058891313531468179182 0.0092335103976380426133 0.0027971720890604540033 0.0052281210759446946137 -0.016584503363705749984 0.02072183392618545672 0.010916470398104076781 -0.0050463604506278975786 0.0045948112047922273077 0.00065582217262200677346 -0.0081548254020070102405 0.0018299424988709310936 -0.001629104451838030241 -0.0084595447788589888533 -0.0084595291097197197749 0.0091741758095189862576 0.0163505999544624539 0.014874805975121672269 0.012433032016303630432 0.00081073909932875007703 -0.00052237687434023927571 -0.00038497631809425892236 -0.0003849866761080859975 0.00012967708547822977185 -0.0093990547457392884662 -0.0052895152736916169547 -0.0019965374229142488112;-0.0022291086519976009185 -0.0016438837179329275802 0.0070681673468251243753 0.0070681690823211091451 -0.0097023815419160167745 -0.039969295958970141314 -0.033627054677096458735 -0.022818614772010654274 0.00092792953608074118469 0.0037176826020904087111 0.0064094212103100317579 0.0064094221681707539209 -0.006867695117481883646 -0.0054516681114193865296 -0.00652311291248361836 -0.0070777364036475800407 -0.0041022601448543220479 -0.0048201047861415472276 -0.0026373952376470746056 -0.0026373959656533995342 0.00042281053015772650195 -0.021483726314760750314 -0.013715142114533059731 -0.0058755289122719650888 -0.0092156905789998778966 -0.002747602098423234003 -0.0051692195347389372287 0.016495519614137064274 -0.020593910292923008759 -0.010840586001108801564 0.005033797260701239687 -0.0045779608728571535847 -0.00063679508757257495544 0.0081225642707223426331 -0.0018026022148362249187 0.0016386346904096560188 0.0084327266305622254616 0.008432711040942442865 -0.0091434493775792904241 -0.016277203736777941245 -0.01481126468346999521 -0.012384020407247604487 -0.00081432625132815130656 0.00050708809777759054297 0.0003612838772520063379 0.00036129418203179980386 -0.00010631035174587980896 0.0093849131681701114527 0.0052934678242376239504 0.002013547627506677342;0.0022725053503627489805 0.001679023877390459522 -0.0071564339544310509242 -0.0071564357137139907386 0.009828040079328781084 0.040528342081290587295 0.034094275770806876935 0.023131006839604315722 -0.00093549731023725817003 -0.0037653977632563129414 -0.0064965822666506597635 -0.0064965832376993283212 0.0069618184274382955215 0.0055293662285282188865 0.0066147217648799229092 0.007175969047714418278 0.0041717035267013419589 0.0049002805974134042502 0.0026873126160873294505 0.0026873133545929619656 -0.0004414976868663022299 0.02177771963297802163 0.013897814965637078632 0.0059463129356496597852 0.0093207405539736856021 0.0028177715962723576086 0.0052710792869537894181 -0.016733698274156244556 0.020907286149769360728 0.011013361081766676053 -0.0050932014276159473173 0.0046386643894152767426 0.00066326016584209498278 -0.0082269733717318556387 0.0018425277775549685991 -0.0016479321548017321526 -0.0085400942856851194684 -0.0085400784752118208409 0.0092611569725362073713 0.016501381792266810178 0.015012711401576884357 0.012549233720818262633 0.00081904133347932039141 -0.0005254385461975506549 -0.0003853876932131818458 -0.00038539814518557554248 0.00012761751615808757934 -0.0094894336281513211317 -0.0053420996483785638392 -0.0020186146280076690436;-0.0022815397200888292394 -0.0016795522190629489419 0.0072817130438662374531 0.0072817148293733398659 -0.0099912259815241582367 -0.041120403130134139391 -0.034598298370504806942 -0.023481976361649212204 0.00096755262150990907141 0.0038360081350504514168 0.0066026322495765597115 0.0066026332346711732318 -0.0070732932425821900407 -0.0056116072064930676636 -0.0067154359382346857574 -0.0072876708909280695989 -0.0042059124399509515563 -0.0049433765440241575137 -0.0026974263440795866013 -0.0026974270926863864149 0.00041941866216206157968 -0.02211050738924110956 -0.01412119575509124085 -0.0060585182241972967282 -0.0094958564688190361114 -0.0028013638062113392982 -0.0052934924710201052001 0.016958723320618512842 -0.021164844372933474398 -0.011136373655369718322 0.0051834661858419107255 -0.0047165616229469173315 -0.00065561011618901407754 0.0083497220002141728235 -0.001836366172124038413 0.0017026325907705957847 0.0086884531995129604676 0.0086884371697723856293 -0.0094191227347964739253 -0.01674970224381824857 -0.01524437221684091931 -0.012750175591358435187 -0.00084241200059118688699 0.00051293794644277591541 0.00035618642151814654002 0.00035619701874403609989 -9.3229596928698024597e-05 0.0096762953996155243869 0.0054663130322232375211 0.0020902898925644168571;0.0022803437375475636012 0.0016835103149511157928 -0.0072016841693707178348 -0.0072016859387801683903 0.009888302210384829205 0.040759728695198872706 0.034290180209317788762 0.023265821330527083899 -0.00094525340774434128601 -0.0037906816362908006025 -0.0065364514765386709169 -0.0065364524530650497738 0.0070040337785621060648 0.0055615301491312033391 0.006653671128451139373 0.0072187516361848554775 0.0041896497094982380893 0.0049219879858455519578 0.0026962394905781878959 0.0026962402331500963729 -0.00043774096949932071558 0.021905284385884907922 0.013981633151121506189 0.0059858302158840833232 0.0093816865093495974137 0.0028219715601764229843 0.0052898316670921697452 -0.016824800848165920308 0.02101662670676229458 0.011068450295012662379 -0.0051252628832066616724 0.004667537299086249071 0.00066451567493444672723 -0.0082734520944713479951 0.001845756233362503846 -0.001664090997845804696 -0.0085940422149089808895 -0.0085940263170623150402 0.0093190155742826769059 0.016597156742186959522 0.015101113451630053877 0.012624740575268808898 0.00082602078777602237596 -0.00052429092177204092168 -0.00038037676468053268535 -0.00038038727465528190475 0.00012083965954999456149 -0.0095535508981469483697 -0.0053821390605649655631 -0.0020388707567258225473;-0.0022419813763678055063 -0.0016584684373420366821 0.0070288073986884812977 0.0070288091282019867986 -0.0096556449046236482447 -0.039843481738841189654 -0.033516260591063593011 -0.022735971140346564884 0.00091142924478145492979 0.0036945819931799811324 0.0063813349497321945891 0.0063813359045809554121 -0.0068392387157035043621 -0.0054341766929696935437 -0.0065001944350695202782 -0.0070508881729806453798 -0.004110773786809462059 -0.0048277293323036986686 -0.0026524099576433371288 -0.0026524106839121491461 0.00044431413913230589788 -0.021404393669607134354 -0.013655654109629681778 -0.0058367291291270282164 -0.0091529261019338333666 -0.0027874309314418355826 -0.00519869983676972576 0.016458652430559633784 -0.020568968795207871747 -0.010838464722404286475 0.0050036907030956900497 -0.0045559398307317266336 -0.00065258455437486513097 0.0080917253702916681207 -0.0018233596956156216187 0.0016090034683847293483 0.008387288859962874904 0.0083872733110227949693 -0.0090965096345445878995 -0.016220058001572515427 -0.014754682774051420049 -0.012330893231867834717 -0.00080198415447646726004 0.00052255366384400259161 0.0003894290082534475686 0.00038943928644525423102 -0.00013644844607028233392 0.0093146932732554518775 0.005237939393296346495 0.0019717418804551098063;-0.0023143865327198468416 -0.0016986975847063071239 0.0074658989090010813294 0.0074659007358673055987 -0.010236787414151810732 -0.042065828961120051155 -0.035398545560217119232 -0.024032374742159749031 0.00100679481318905438 0.003938791990765069459 0.0067651640321464805161 0.0067651650396278384045 -0.0072454581393638336009 -0.0057429841813620248134 -0.0068744495449411463853 -0.0074622523202961211705 -0.0042801511388834683619 -0.0050330468273472967963 -0.0027349054618381815618 -0.00273490622708364578 0.00040505557951081892039 -0.022631204109626094911 -0.014462954937111780623 -0.0062191006090372043247 -0.0097435252451244722116 -0.0028205257342777453194 -0.0053720081181467442891 0.017331612418520613711 -0.021613281497009549648 -0.011362802943404753594 0.0053138871866390165188 -0.0048341991982435352643 -0.00066126518010403332291 0.0085396028221266899461 -0.001850681111872767631 0.0017676165611770716744 0.0089080806626200010473 0.0089080642754697080682 -0.0096547605742183933986 -0.017140789578478515115 -0.015605160872501373098 -0.013058095598909197008 -0.00087049757773334415344 0.00050898280403466583232 0.00033694667360395117806 0.00033695750808905062948 -6.6818465952290717808e-05 0.0099365959643119856209 0.0056282976503420605735 0.0021715727573254979717;-0.0021930021145469256495 -0.0016124280546260432237 0.0070296757699345067613 0.0070296774925839916257 -0.00964262680798270988 -0.039659667799596343141 -0.033371294594126181543 -0.022652176063374784148 0.00093174200215935098351 0.0036979522415339039984 0.0063657582287719120112 0.0063657591793430425009 -0.0068195354496063476449 -0.0054087197182466116921 -0.0064736872496433464641 -0.0070259459243419636679 -0.0040508742507274530034 -0.0047619418801267661759 -0.0025956595320118804569 -0.0025956602538668455821 0.00039865378571666675728 -0.021327991958410660867 -0.013623854589429039777 -0.0058486169579844678526 -0.0091783958679557339777 -0.002679005041657065312 -0.0050847707503784388139 0.016354524257731494624 -0.02039597993253975533 -0.010725289143894305155 0.0050097316957152544098 -0.0045487966812574123776 -0.00061064522524121244654 0.0080685243269014023104 -0.0017645102161422438099 0.0016482867990288618473 0.0083847066543969450692 0.0083846911920209560992 -0.0090892602935588682339 -0.016156668905711369516 -0.014705760811593054926 -0.012301105046045550731 -0.00081779080579083107509 0.00048640060723939738821 0.00032994356009197846119 0.00032995377981378257518 -7.579141158008852598e-05 0.0093519890220481530219 0.0052903852688187622683 0.0020325133344546910535;-0.0022705720539107662574 -0.0016749834901138480579 0.0071914838277438815003 0.0071914855937241124739 -0.0098724082729138226688 -0.040676892541824091754 -0.034221784331820423453 -0.023221355698815598217 0.00094627382725285093604 0.0037853970361697167682 0.0065247525633413501131 0.0065247535379232557418 -0.0069911280960402088711 -0.0055499938143538955423 -0.0066404100305272025298 -0.0072048662527653571305 -0.0041758128418060798046 -0.0049063381970544392777 -0.002684988953749759856 -0.0026849896946740709099 0.00043119724130826945314 -0.021863654274640376141 -0.013957263842005988505 -0.0059786998719727826868 -0.0093719361929409262385 -0.0028033405383332534941 -0.0052669869663854070041 0.0167870675287280606 -0.020963455669898954647 -0.011037404036858912415 0.0051189637452499431661 -0.0046597591334873742289 -0.0006572941923288466411 0.0082591474302406136382 -0.0018354749909599724165 0.0016667549142790501465 0.0085812557144733080799 0.0085812398506482159832 -0.0093045759679704180545 -0.016564923328918273321 -0.015072916091577456127 -0.012602601372002428595 -0.00082699378505281207971 0.00051867205441483838196 0.00037183942457190210596 0.00037184991178040415882 -0.00011251494005156176714 0.0095449774996224697604 0.0053815313461699739242 0.0020441364889117741299;-0.0021817404627316088275 -0.0016050608007875560076 0.0069791802300605892614 0.0069791819410422121367 -0.0095746541428807733359 -0.039391843993308153782 -0.033145081735162326697 -0.022497317944287501673 0.00092201853968716077255 0.0036700106187972270262 0.0063205412822007131513 0.0063205422264258513329 -0.0067714818122950179088 -0.005371564966065851994 -0.0064289105594617047476 -0.0069769792438430710754 -0.0040277203337676561329 -0.0047342844079159241907 -0.0025827437030938212026 -0.002582744420181386745 0.00040047550488613741816 -0.021181627126844859016 -0.01352863454795188991 -0.0058051181944935373314 -0.0091114356572278096952 -0.0026689176714257542219 -0.005058123733912142303 0.01624739694709149973 -0.020265091690080221098 -0.010658070353424522678 0.0049741249527998120453 -0.0045162643058960080453 -0.00060743260758615909983 0.0080151387360198490112 -0.0017578413721519119389 0.0016322966935536748715 0.0083243533895029017677 0.0083243380292355624583 -0.0090242984142865946551 -0.016046453513181294787 -0.014604530720896761672 -0.012215267733922618998 -0.00081073768496114895742 0.00048591144659986109993 0.00033259745124923466167 0.00033260760318809502126 -8.0361118176596735003e-05 0.0092821575041119059463 0.0052482272873975140473 0.0020128853911391721143;0.0021582888956904605626 0.0015819291418238188955 -0.0069967193410593415612 -0.0069967210521570200391 0.009590368860052543229 0.039380003376733974108 0.033140810965892261719 0.022502991557504778419 -0.00093665670774247000198 -0.0036813686120389307876 -0.0063271889676430178792 -0.0063271899116262271881 0.0067767919893640584522 0.0053700048536062154961 0.0064293357600269376503 0.0069796858731501218789 0.0040021721128243531798 0.0047069553518889108851 0.0025554298465993510736 0.0025554305628369077506 -0.00037434429653283830212 0.021188631320072377762 0.013543203210225568042 0.0058265378597790410536 0.0091484227528683317171 0.0026117572776014328674 0.0050034929238924044301 -0.016225454112399985418 0.020212882209695259145 0.010617708257000601363 -0.0049894744997070238426 0.004523210028257001504 0.00058504320726845602217 -0.0080203199688304305237 0.0017272191188757606874 -0.0016596841532580774818 -0.0083434178865497525546 -0.0083434025400458324689 0.0090423206507248294478 0.016048487215954719554 0.014611591429606352391 0.012227788297062561901 0.00082205477651220177499 -0.00046578864609219685321 -0.00029838962799452680178 -0.00029839977022923090027 4.4851645222011264776e-05 -0.0093266941667974022356 -0.005291862973289538849 -0.0020535501099522433972;0.0019123911297040624251 0.0013857713452136413614 -0.0064501068480314269205 -0.0064501084147571179431 0.0088188028429762171934 0.036006023024819512612 0.030316928813963868461 0.020608742811046239923 -0.00088657883674383552303 -0.0033902617502925822858 -0.0058001076093403920383 -0.0058001084732472747013 0.0062083467271801077991 0.0049048024059246122727 0.0058788584710563474012 0.0063878501397363939354 0.0035977169132098509897 0.004238266721046057145 0.0022693183876881621586 0.0022693190409192203795 -0.00027629262385650077763 0.019407207385361884 0.012430439270953193634 0.0053863532790464326364 0.0084828399670860057252 0.002229081833603928451 0.0044263074701441943934 -0.014794588846214729375 0.018353943317727983847 0.0096030222309112060752 -0.0046143991356335668091 0.0041527745780421442337 0.00045160028893624106199 -0.0073745731983061828252 0.0015030384041560252133 -0.001588152975987533206 -0.0076836308660765502074 -0.0076836168513399237881 0.0083205979762393297156 0.014692008113541953074 0.013389694488685792081 0.01122190451557384186 0.000785735504543558054 -0.00036867904613695841494 -0.00017658159408475302614 -0.00017659085099919717829 -5.9067642440867243871e-05 -0.0086615111854147341236 -0.0049660489606591787584 -0.0019939072085297035453;0.0022272850012038563142 0.0016359614965540834539 -0.0071659777404077841523 -0.0071659794951071898936 0.0098272255477345419467 0.040397498438393616982 0.033993675091087000029 0.023077015633673435974 -0.00095647171622675430762 -0.0037732172241349828598 -0.0064891660296788351153 -0.0064891669977213423809 0.0069509271481018874983 0.0055111112205248578844 0.0065967525677959508792 0.0071602103644346779335 0.0041181148389920234007 0.0048418122964361664379 0.0026350110277525823875 0.0026350117628319122583 -0.00039733190176353906566 0.021729308460326186153 0.013883522990510821504 0.0059651561692590964261 0.0093570826572001251226 0.0027149324191565347639 0.0051658394158089898651 -0.016652051238104214476 0.020763203904246536197 0.010915841657783992985 -0.0051053491558325607425 0.0046372749213573040764 0.00062283425105093736997 -0.0082143687152753438324 0.0017871508951853604542 -0.001688383456404135086 -0.0085479128561912181422 -0.0085478971112618474387 0.0092652804891131743115 0.016459322715187230807 0.014983010386332479627 0.012535277824536176366 0.00083553057693037892286 -0.00049064821219700280319 -0.00032756345403143637043 -0.00032757386143341814429 6.8331506147437540773e-05 -0.0095375326861991613359 -0.0053999966752855338772 -0.0020806249234243726597;-0.0019825722790854445783 -0.0014458371199451345007 0.0065418346928721960928 0.0065418362880486176023 -0.0089566216629702721103 -0.036682971969984205785 -0.030878311236504019793 -0.020977446093288991402 0.00088202097789471525183 0.003436380771061074528 0.0058972507503115582581 0.0058972516303193670689 -0.0063149157578184789141 -0.0049974628108811307292 -0.005986482082727897884 -0.0065014891910286686308 -0.0037015285702293276686 -0.0043565143257360420051 -0.0023516257174863506967 -0.0023516263839566510854 0.00032040814414116438984 -0.019751948518796486748 -0.012636112942020851641 -0.0054528602180312210276 -0.0085803576008982029855 -0.0023574998498930247598 -0.0045909244757216440685 0.015098271824263447341 -0.018769284183949418859 -0.009840412150624215995 0.0046749768125881807287 -0.0042193143085280842078 -0.00049720560832101933814 0.0074986904779491062034 -0.0015763242968703809668 0.0015762528934463266791 0.0077956594369731155997 0.0077956451457923715831 -0.0084458329293439701746 -0.014957611982711933526 -0.013623991163170704605 -0.011408413381083504223 -0.00078223927428514093523 0.00040669857747053388998 0.00023251096321309628711 0.00023252040415632220884 5.4710326202488472321e-06 0.0087516200231254233366 0.0049898960670979640789 0.0019678791839696303974;-0.0022598089049271339636 -0.00166912256824938059 0.0071246314894477568228 0.0071246332405832122139 -0.0097836133115319929426 -0.040338179122915603092 -0.033934833014108788107 -0.023023619685735290108 0.00093155323140092403337 0.0037480208940835319474 0.0064661448304466065048 0.0064661457970068012338 -0.0069291225450472332739 -0.0055029240174257320478 -0.0065833372044387210298 -0.0071421076999003425129 -0.0041502920373367264625 -0.0048753592366591992982 -0.0026727380055233626067 -0.0026727387405149141686 0.00043749704064824325098 -0.021676508205440536692 -0.013833993188748573352 -0.0059201394105068555485 -0.0092814531808146326364 -0.0027989695644941147562 -0.0052412075677011242883 0.016654223623323530928 -0.020804845539962136397 -0.01095793580833023112 0.0050714842357145097779 -0.0046172465520625174257 -0.0006562054145119680269 0.0081908224463258620662 -0.0018316736735607113545 0.0016422444477027294419 0.0085016214808379796802 0.0085016057446491832134 -0.0092192426106487562754 -0.016424511844858723925 -0.014943156436463439149 -0.012491572916602095705 -0.00081640951853676770565 0.00052098302574678798452 0.00038024911507662155583 0.00038025951758177505262 -0.00012355445148262310037 0.0094496269585287260423 0.0053214948777942985836 0.0020131846119303257493;0.0022999446047090583815 0.0016932451527488011443 -0.0073382125934862343225 -0.0073382143928708114256 0.010068956047379120158 0.041442344539454160912 0.034868999421437459063 0.023665461041305919238 -0.00097629383622261766557 -0.0038671558359457138508 -0.0066553543088501924269 -0.0066553553015468013693 0.0071296734383177072167 0.0056563941854037057613 0.0067689080535760382668 0.0073456737865836225013 0.0042388552784544128796 0.0049820567049895236877 0.0027185185721222060104 0.0027185193265935655299 -0.00042268690719732542483 0.022283640708291609783 0.014231739966948590836 0.0061059409758569297907 0.0095675995492209425786 0.0028257039584183587209 0.0053370015067963818417 -0.017090989996816189495 0.0213321139686428983 0.011225249733839700456 -0.0052224720680883974719 0.0047540028770599544045 0.00066472050471554013258 -0.008411818802566469605 0.0018506803278821395715 -0.0017160204894935721532 -0.0087564855758342687725 -0.0087564694215883885631 0.00949286838425069876 0.016880741239788037839 0.015363650757159350371 0.012849961855638566965 0.00084835421519305754916 -0.00051786940153140861159 -0.00036038194474272519001 -0.00036039262482886108346 9.5419517256390974343e-05 -0.0097499740093608833896 -0.0055071948804640913702 -0.0021049488842478842644;0.0022466607820811061898 0.0016538707536385961836 -0.0071704240832246250031 -0.0071704258415873217691 0.0098385153546610790848 0.040491546528832356167 0.034069259825656644791 0.023122980796686253002 -0.0009499131841297604132 -0.0037747072029526464176 -0.0064993578007386696924 -0.0064993587709722654144 0.0069629249154261607657 0.0055241986344307962217 0.0066109628079392647113 0.0071742422197562608771 0.0041426593693618656705 0.0048689843428326873981 0.0026574180119010928913 0.0026574187490814101149 -0.00041420409416138685189 0.02177171930977515879 0.013904425070480159674 0.0059648416534497789021 0.0093536949896680880029 0.0027565773902235076592 0.0052110852425026905205 -0.016701081924659171712 0.020840332679280714617 0.010964599147456738013 -0.0051063688338787343104 0.0046430996544350022076 0.00063915272568308592431 -0.0082278065892867173481 0.0018097489633348423643 -0.0016752378638227323048 -0.0085545992343585113005 -0.0085545834474950142867 0.0092741455949381882556 0.016493426512000083223 0.015010864638081667863 0.012554533123406449655 0.00083022007681222639592 -0.0005042921937461124042 -0.00034965756480204645759 -0.00034966800046563591229 9.0684993620316587141e-05 -0.0095300575244629693455 -0.0053842470652665942038 -0.0020596412426396241806;-0.0021878753298165691706 -0.0016056766893103235558 0.0070601985780180450541 0.0070602003060051968589 -0.0096802706301635631919 -0.039775820103901141089 -0.033471900107550821291 -0.022724797272527626907 0.00094250182478059906389 0.0037155360544338816332 0.0063891160638889638035 0.0063891170172313445363 -0.0068435957514899840165 -0.0054248510091962588373 -0.0064941357164667624924 -0.0070492859452814934582 -0.0040502322282008479393 -0.004762566605232498862 -0.0025896168509193062506 -0.0025896175745636065488 0.00038645191054627580632 -0.021397331559026167708 -0.013673323459029189039 -0.0058776432478607719412 -0.0092248678146476543321 -0.0026586481505118959162 -0.0050730222823248682928 0.016393508776257326859 -0.020432505393832966351 -0.010738130289250467572 0.0050325753205398889717 -0.0045665564551851337699 -0.00060228788651757903406 0.0080950140067882446482 -0.0017541990416506027944 0.001667451921429481676 0.0084203410957271358772 0.0084203255930747848007 -0.009126528320938959507 -0.016207472148514055765 -0.014754683242380403282 -0.012345432826298973622 -0.00082591414844734574539 0.00047785493549636976407 0.00031383208504545310157 0.00031384233124847964961 -5.8244316323280340673e-05 0.009403042054561281185 0.0053285067381058171324 0.002059131127185479665;-0.002205444277106856539 -0.0016205021729260853536 0.0070864950322812349237 0.0070864967680263121069 -0.0097190456412230789157 -0.039960153069371631696 -0.033625142128891477578 -0.02282602389314218258 0.00094278921177032108929 0.003729417868030274457 0.0064165714402434036179 0.0064165723979339641531 -0.006873520656213191575 -0.0054504121626105326431 -0.0065239515941687142853 -0.0070809329704366744465 -0.0040766424256315249297 -0.0047927498537756853605 -0.0026099239499497387668 -0.0026099246771482164167 0.00039638852802706961908 -0.021492318177996523609 -0.013730843724060777869 -0.0058976165411778642966 -0.0092538363272371571694 -0.0026898647018901125812 -0.0051142343824531937349 0.01647456806144736996 -0.020542451695960587538 -0.010800403692957455393 0.005049811401326298986 -0.0045853749426220556315 -0.00061409061749223353092 0.0081284604945811630289 -0.0017717344115432557064 0.0016664656346103681652 0.0084526040476430412685 0.0084525884707910541732 -0.0091623211146921353099 -0.016280381907985239098 -0.014819432411873842761 -0.012397547725595328694 -0.00082579204745257084146 0.0004867919051147442033 0.00032669164051920396687 0.00032670193623406563067 -7.0378639603355246947e-05 0.00943072057929137883 0.0053380508727251755469 0.0020548686221143188865;0.0022164148956892669971 0.0016278004576157449872 -0.0071337736216476634044 -0.0071337753683775794941 0.0097828110298233128539 0.040212551860651549185 0.033838236499911349131 0.022971766971404308788 -0.0009517403232358787827 -0.0037555750365798187471 -0.0064590678745140911107 -0.0064590688381830291612 0.006918708434619067274 0.0054854378266433198932 0.0065661257667192036644 0.0071270192469004315858 0.0040988378536571641944 0.0048192142444804320425 0.0026225072609816707861 0.0026225079926829987856 -0.00039507586495756617751 0.021630042928027712335 0.013820287550725774556 0.0059382485159671181268 0.0093162808294839447726 0.0027002855982980016047 0.0051402056100130575494 -0.016575784714910793416 0.020666543465899848975 0.010864355078590319167 -0.0050830819952464639452 0.0046159172655262665358 0.00061751701915152752177 -0.008178609533565129458 0.0017784836760916333896 -0.0016811042403504913509 -0.0085091472327199109416 -0.008509131559511298043 0.0092232201999591489211 0.01638414070488549909 0.01491465294134279064 0.012478189407067068195 0.00083224223437434823557 -0.00048758417612219999383 -0.00032474780968571464752 -0.00032475816938342397721 6.6651358298323881181e-05 -0.0094957614542256728318 -0.0053770459362465763617 -0.0020726943612999460496;-0.0015399758944865476161 -0.0010973176821826849045 0.0054865478493647309305 0.0054865491698074956087 -0.0074763437812097738311 -0.030293642420154184847 -0.025524672518898439827 -0.01737727600880897838 0.00078405030808071220303 0.0028835853036731150072 0.0049001862268069299594 0.0049001869542618431072 -0.0052403252945050484909 -0.0041234303372613230129 -0.0049493347467341516216 -0.0053843288893961598757 -0.0029556423034212361313 -0.0034897877476089350993 -0.0018308209836504234138 -0.0018308215313240943679 0.00015527246052040807617 -0.016368345246238317353 -0.010514234732470945782 -0.0046009693168959867743 -0.0072690870096318981747 -0.0016957609506510951027 -0.0035555542226255541088 0.012397418283427075539 -0.015297800009560547085 -0.0079617424666833525038 0.0039384854964888364043 -0.00351420966397994472 -0.00029182086152625943878 0.0062453119194240862624 -0.0011752144851584222802 0.0014191811723639432587 0.0065294116935990242911 0.0065293999249907063928 -0.0070629204645089489756 -0.012383173301736223604 -0.011300877413123883164 -0.0094907841477479513992 -0.00070019860941665165721 0.00024476532994452372075 3.8907334249875382499e-05 3.8915102839810088902e-05 0.00016367613423838998552 0.0074387273588586034362 0.0043227959153874801618 0.0018097300286156314114;0.0022560623062053671364 0.0016634399053505292011 -0.0071587331614583853134 -0.0071587349188422331331 0.0098262429195274635096 0.040475560070033868298 0.034053243178909453626 0.023108243610625894132 -0.0009427923398705496949 -0.0037675790886548413475 -0.0064929241247937133016 -0.0064929250946257482946 0.0069568524312169938845 0.0055219987497443093552 0.0066072898423539527801 0.0071692379960541360515 0.0041520052199988709621 0.0048787410228584232944 0.0026683163137167504979 0.0026683170508907953951 -0.00042574408434514044537 0.021757124527940846503 0.013890566257932727284 0.0059520736591403798632 0.0093322090864390097598 0.0027807882681816554517 0.0052328678533538506776 -0.016702127382639809366 0.020852834276130393504 0.010976978639211048758 -0.0050967641199671075841 0.0046374693035867442514 0.00064877519329872314607 -0.0082212369257042249016 0.001822575385156071856 -0.0016620374921286651827 -0.0085415324229240040949 -0.0085415166381721686212 0.0092611700803558252848 0.016483859744570159012 0.014999811971141488454 0.012542311757996858421 0.00082475212742353070511 -0.00051301540358196116506 -0.00036479690371885183618 -0.00036480733824303035115 0.00010654650817095349762 -0.0095050547304934875081 -0.0053618392217442932546 -0.0020403255080958075662;-0.0022513915572494919322 -0.0016554041374810561302 0.0072162300102006273622 0.0072162317783579692579 -0.0098985928875647503228 -0.040713484577731239022 -0.034257862713909431607 -0.023253814185410622006 0.00096101721405073448502 0.003800410718972486307 0.0065385818899318590147 0.0065385828654303656399 -0.0070042552179483503691 -0.0055550125551477869124 -0.0066485618949756629045 -0.0072158116842149693307 -0.0041569258565881768083 -0.0048866708392393785887 -0.0026627703304013638878 -0.0026627710714049917032 0.00040745422939130154609 -0.021895690414306428345 -0.013987075243091054086 -0.006005548251360677374 -0.0094170935201661840758 -0.0027536617400421110544 -0.0052225383193369705886 0.016786425272481014098 -0.020939549363433722362 -0.011012857539733829706 0.0051392390380365967489 -0.0046717741722869035592 -0.00063746230588115708991 0.0082734766393004286616 -0.0018092071630612380825 0.0016941073408212629567 0.0086089533182028173119 0.0086089374485883284754 -0.0093321503584586386337 -0.016586124986237325146 -0.015097045874691664494 -0.012628917739569945136 -0.00083834377071303892767 0.0005007302423584221885 0.00034065424369334493075 0.00034066473419240713653 -7.9817376092419073906e-05 0.0095973900732535793318 0.0054282199539546173092 0.0020841500081106184052;0.0021130393935979742415 0.0015461528437045847853 -0.0068910820979450997104 -0.0068910837814987807234 0.0094419118436400162331 0.038736612605714162982 0.032601919444302553119 0.022140894224011886671 -0.0009254983876390895231 -0.003624464147597741305 -0.0062256270095860117425 -0.0062256279383358717472 0.0066674462017995194188 0.0052809670651376315262 0.0063238424790619711738 0.0068660978193543975232 0.0039270083926797256027 0.0046196988312153779849 0.0025030675099569554484 0.0025030682142319730932 -0.00035780657506738992998 0.02084778658527085618 0.01332944639105659336 0.0057406686224061699922 0.0090190350120283226815 0.0025426607484785920116 0.0048971587350830200411 -0.015954260639070343142 0.019861674210665425377 0.01042668807094088157 -0.0049171541405425480548 0.0044517920778986246055 0.00056018356023947917053 -0.0078975877743414860804 0.0016869902110478742462 -0.0016437007741012779789 -0.0082157842449714201666 -0.0082157691513117647036 0.0089029462796526709356 0.015789233595474353594 0.014377618322151826044 0.012034608963205890506 0.000814317058996059614 -0.00044869113822444364097 -0.00027757866173962653274 -0.00027758863576083655329 2.7546424074886399752e-05 -0.0091966058506363634883 -0.0052265936492784364348 -0.0020392799680601053462];

% Layer 2
b2 = -0.023754692808527391734;
LW2_1 = [0.084182140408062391956 0.079739063135781357294 0.081904280109611413141 -0.081103713790825912588 0.053117829449315347168 0.078889022384753315631 0.084529996213655797521 -0.083805935455862998196 0.06753400878461318646 0.077966736160837643577 0.079642495606081373238 -0.08128131192802441618 -0.081232881368661177812 0.07617814266553545044 0.08170996212526905611 -0.081852543400554075848 -0.077539091749336083725 0.070152280738446426422 -0.085644575790828708639 0.07935277390274843301 0.079606450931994046649 0.083960511970212800548 0.070039794914702607764 -0.081161741896722386369 0.083503632319273157769 0.082116793508015081815 -0.081741181620206854186 0.070396883807484531004 -0.084961083155498814956 0.081658149058447426771 -0.061752073406539841061 -0.082986928082104199911 -0.080268183796922659701 0.081231570332258112854 0.084425364512325240529 -0.083130998409780790248 0.08432683999162907118 -0.082490640965212566615 0.083970355880411198801 -0.084786124967340378844 -0.081142415599991676856 -0.081386067673462361705 -0.083513403155229398722 -0.08162541103507295337 0.079556416563038107048 0.072207687729012204336 0.08103311623261746921 -0.076014422563857986237 -0.084098392060626400712 0.082638021607752187858 0.082297666287473314473 -0.080386960795833919957 -0.081104674825167838437 0.080917887336989610669 -0.061127767459998677557 0.083174200052802613192 -0.081711507711467637471 0.078432712764109832615];

% Output 1
y1_step1.ymin = -1;
y1_step1.gain = 3.14134283610484e-05;
y1_step1.xoffset = 16578.93;

% ===== SIMULATION ========

% Format Input Arguments
isCellX = iscell(X);
if ~isCellX
    X = {X};
end

% Dimensions
TS = size(X,2); % timesteps
if ~isempty(X)
    Q = size(X{1},1); % samples/series
else
    Q = 0;
end

% Allocate Outputs
Y = cell(1,TS);

% Time loop
for ts=1:TS
    
    % Input 1
    X{1,ts} = X{1,ts}';
    Xp1 = mapminmax_apply(X{1,ts},x1_step1);
    
    % Layer 1
    a1 = tansig_apply(repmat(b1,1,Q) + IW1_1*Xp1);
    
    % Layer 2
    a2 = repmat(b2,1,Q) + LW2_1*a1;
    
    % Output 1
    Y{1,ts} = mapminmax_reverse(a2,y1_step1);
    Y{1,ts} = Y{1,ts}';
end

% Final Delay States
Xf = cell(1,0);
Af = cell(2,0);

% Format Output Arguments
if ~isCellX
    Y = cell2mat(Y);
end
end

% ===== MODULE FUNCTIONS ========

% Map Minimum and Maximum Input Processing Function
function y = mapminmax_apply(x,settings)
y = bsxfun(@minus,x,settings.xoffset);
y = bsxfun(@times,y,settings.gain);
y = bsxfun(@plus,y,settings.ymin);
end

% Sigmoid Symmetric Transfer Function
function a = tansig_apply(n,~)
a = 2 ./ (1 + exp(-2*n)) - 1;
end

% Map Minimum and Maximum Output Reverse-Processing Function
function x = mapminmax_reverse(y,settings)
x = bsxfun(@minus,y,settings.ymin);
x = bsxfun(@rdivide,x,settings.gain);
x = bsxfun(@plus,x,settings.xoffset);
end
