function [Y,Xf,Af] = myNeuralNetworkFunction2(X,~,~)
%MYNEURALNETWORKFUNCTION neural network simulation function.
%
% Generated by Neural Network Toolbox function genFunction, 16-Sep-2018 16:34:02.
%
% [Y] = myNeuralNetworkFunction(X,~,~) takes these arguments:
%
%   X = 1xTS cell, 1 inputs over TS timesteps
%   Each X{1,ts} = Qx50 matrix, input #1 at timestep ts.
%
% and returns:
%   Y = 1xTS cell of 1 outputs over TS timesteps.
%   Each Y{1,ts} = Qx1 matrix, output #1 at timestep ts.
%
% where Q is number of samples (or series) and TS is the number of timesteps.

%#ok<*RPMT0>

% ===== NEURAL NETWORK CONSTANTS =====

% Input 1
x1_step1.xoffset = [2.81242e-13;4.2926e-09;0.071954088;0.239026308;3.059563418;1509003523;1315609;1147;7.51315e-07;8.26446e-05;0.147463052;0.489861655;1.707570176;132651;2601;51;4.86905e-06;0.000287274;0.169991616;0.564699926;1.230448921;4913;289;17;1;6.4e-05;0.0016;0;1;1;1;1;1;1;1.72015e-14;6.66363e-10;0.0656104;0.217953032;4.256746602;5891690000000;326206945.4;18061.2;3.41987e-14;1.05359e-09;0.067064505;0.222783463;4.156458285;2946960000000;205549569;14337];
x1_step1.gain = [3019288309.72417;2646162.78611304;75.6550831799269;22.7744494817731;1.77923835691729;5.62722293448554e-13;8.63395468451616e-09;0.00014168319637291;294669.502369511;6626.39145937657;69.3760752858069;20.8842792272407;5.99120774087765;1.66896288143104e-06;0.000210548478787241;0.0338983050847458;10066.7957062096;630.331421958351;26.7884914390545;8.06413948819479;3.70094108140473;9.97675416280067e-06;0.0006265664160401;0.0476190476190476;0.285714285714286;2.00012800819252;2.00320512820513;1.43067655773775;0.000128008192524322;0.00320512820512821;0.0833333333333333;1;1;0.25;13112217636588.3;833619195.249037;391.548350543841;117.8677974746;6.03504162428559;3.8282853244022e-14;1.70288698978168e-09;9.67237256044628e-05;6554512404906.31;524738811.256697;373.124930622083;112.321790247593;6.02037497779122;7.60631537152667e-14;2.68967849795496e-09;0.000121425535790177];
x1_step1.ymin = -1;

% Layer 1
b1 = [-0.0029383846886329163632;-0.0029322151781432438146;0.002975409889262627984;-0.002962172446209934782;0.0029415529134556501513;-0.0029842475393761446444;0.0029621614269293027218;-0.0029598924835952120441;-0.0029593266102383216504;-0.0029516350583236256391;-0.0029435232356133721014;0.0029978941224885324174;-0.0029722483000573693933;0.0029527095279692854544;0.0028718224261172760163;-0.0029936080697956272099;0.0029307650966320379811;-0.0030010620587822682027;-0.0029653504238813382932;0.0029252423367471598777;0.0029852146482958214629;0.0029471649071590904148;-0.0029666227916706256786;0.0029615372589077209806;-0.0029468304978540059598;0.0029378033885060494956;0.0029601259138322833647;0.0029445426168881903492;-0.00294866722386861492;-0.0029281130294029926106;-0.0029238540030991863085;-0.002924162903310665966;-0.0029214718329324432071;-0.0029619830866273598631;0.0029645663010192079001;-0.0029662177867170232831;0.0026583526092734737975;-0.0029482238329158515569;0.0029887119845316083809;-0.0029391660282459069163;-0.0029675064243773739171;-0.0029799742035150548862;0.0029428409612810182798;0.0029626618208615511547;0.0029530949282428487629;0.0029848044976459372352;0.002948231000755969014;-0.0029471785308564811198;-0.0029627489678289379432;-0.0029387624729927280288;-0.0029390150116309098939;-0.0011110959598191094862;-0.0028889803674079571165;-0.0029674377431171770209;-0.0029672115551248410409;0.0028817057061515912245;-0.0029653694693767013862;-0.0029397730789681502869];
IW1_1 = [0.0025719986713040980664 0.0017900698178619539776 -0.0089268374962580485099 -0.008926839113482805399 0.01200214660156614932 0.038800352707396727758 0.035481828385917797697 0.026072001329779270762 -0.0041661097388024587521 -0.0063124737350517875351 -0.0076217153550450101457 -0.007621716108684136945 0.0075964713288691632781 0.0029051566233006826528 0.0050232345649836324802 0.0066959257293246685072 0.0089775387051863383275 0.0067738440967023685543 0.00079683489394395342915 0.00079683519149759032395 0.0023684492331279560773 0.014822908490884207505 0.012305382794590842901 0.007910890913054087481 0.0082006834549258715572 0.0080040567166077703637 0.0077007325286312195908 -0.011057187527716755282 0.020176688410635704174 0.011587227126908111047 -0.0016365777091262927959 -0.0015907730064021632747 -6.5452413223512207309e-06 -0.0065316101409644295589 -0.0045812206967831472365 -0.0068188862124892307692 -0.010083025230241250345 -0.010083023006711908792 0.010340892406612274199 0.010995888648444043789 0.011405310415882927155 0.011216165235844384115 0.0052623639406576862287 0.0035651876843139831269 0.0012063564818319476128 0.0012063479664096610385 -0.0010612194276958825806 -0.0035865954127877845703 -0.0017902830180888582544 -0.00092971499752700760642;0.0025665517129894949502 0.0017861760052677424018 -0.0089094333215122070713 -0.0089094349355529466744 0.011978628435031064836 0.038723412406594479029 0.035411557395580703367 0.026020491201162964517 -0.0041580522308660092246 -0.0063000734079427999842 -0.0076065049725833871336 -0.0076065057247229886025 0.0075812330485228139609 0.0028986875750104165034 0.005012733266670383811 0.0066822909015561392232 0.0089594999518930028976 0.0067602789940971090912 0.00079533944835631620839 0.00079533974534173922447 0.0023635613074087171055 0.014792866518326484165 0.012280448570060314289 0.0078948289436524144574 0.0081826931983237753687 0.0079897298315167921551 0.0076868306525364566914 -0.011035982684381577187 0.020137542106383223006 0.01156474641218547747 -0.0016334252216184917683 -0.0015868332264617661734 -3.8792647558037415302e-06 -0.0065166800336558285134 -0.0045710271577294485021 -0.0068040877442524282451 -0.010061497818618271236 -0.010061495599509416229 0.010318831297566810265 0.010972384393898755583 0.011381002757928063499 0.011192279992310063402 0.0052509979026648667677 0.0035569621707383491244 0.00120243504359412068 0.0012024265445468057967 -0.0010575512820317223023 -0.0035777346920826610943 -0.0017849754158769687729 -0.00092617570856464359261;-0.0026047633906527379796 -0.0018136585657450210365 0.00902909694203583163 0.0090290985780203097261 -0.012140537506568837081 -0.039254719362048676179 -0.035896647698293010498 -0.026375851414231019781 0.0042133027100094777931 0.0063854770654974300423 0.0077117388764668731369 0.0077117396389782145311 -0.0076868174147744815564 -0.0029448215114882760231 -0.0050863605608044244397 -0.0067771764300528997485 -0.0090845667918327561302 -0.0068542206169511944031 -0.00080544326648005664174 -0.00080544356733992989762 -0.0023977784101492228934 -0.015001787288728482897 -0.012453852532297086247 -0.0080066186904902535842 -0.0083109203748473782503 -0.0080853251258231895182 -0.0077799180854130839738 0.011181211001024154647 -0.02040557812305714494 -0.011718462537156434586 0.0016554560485505212704 0.0016155518958382837722 2.8538606940486232485e-05 0.0066243709757777963221 0.0046440152596143105534 0.0069092407980788422481 0.010213670695902161631 0.010213668446220361408 -0.010474737233109645759 -0.011138538811160074785 -0.011552699913852351038 -0.011360967688940296766 -0.0053312713910131179912 -0.0036160832532225427316 -0.0012327381320820997475 -0.0012327295211268687707 0.0010861906852034665643 0.0036427633136995873908 0.0018254508856253867741 0.00095426167487996352203;0.0025932180577178218402 0.001805716883400162228 -0.0089876596809468824872 -0.0089876613094477929983 0.012084933217320143611 0.039075834144901927525 0.035732965240575786936 0.026255454663025999673 -0.0041938396506895937732 -0.0063562242860177343984 -0.0076767496338080755403 -0.0076767503928645910993 0.0076520588118010298209 0.0029325202506253643039 0.0050640269617646237882 0.0067468455815107618648 0.0090435649283161726603 0.0068231842177897909091 0.0008015482425950124553 0.00080154854204163847927 0.0023872833624761975214 0.014934689231446194799 0.012398170159217626954 0.00797091370146916188 0.0082765766351592766348 0.0080457610026278339466 0.0077421425530538635906 -0.011129664897292829498 0.020310276555155964973 0.011663337431634777583 -0.001648621467502571665 -0.0016092246603564529239 -3.4043723894048449766e-05 -0.0065982578306434773452 -0.0046251804077560680628 -0.0068803847484084912356 -0.010170206449781751118 -0.010170204210287830948 0.010430121357982198235 0.011091097175022678056 0.011503380925802898435 0.011312457683408888229 0.0053081896700347660015 0.0036013042115665837468 0.0012296588318655059593 0.0012296502611705924148 -0.0010838603165666076383 -0.0036293577972393354682 -0.0018202737005976860583 -0.0009528611862437473632;-0.0025752185434243278842 -0.0017933004757703472232 0.0089235698166826912109 0.0089235714335993039648 -0.011998892526287826404 -0.038798724960338086543 -0.035479438099277074703 -0.026069015286782029617 0.0041637674049454110464 0.0063109545346861266671 0.0076225085384377154821 0.0076225092921386617545 -0.0075981433135592192987 -0.0029131699494909682295 -0.0050292068008869735343 -0.0066997137877788243143 -0.0089799467458857896995 -0.0067750513840949561778 -0.00079556144298166596527 -0.0007955617402492749313 -0.0023709288255027321547 -0.014830445095567027641 -0.012311660065896533334 -0.0079154218310457553909 -0.0082225459146783620723 -0.0079851558898232991024 -0.0076842183611653966727 0.011050041550998326856 -0.020163135033172949195 -0.011578278849743836934 0.0016379557491867657599 0.0015991235052811197167 4.1268829232851532039e-05 0.0065568520240592547549 0.0045954629168908850759 0.0068350685492735248003 0.01010214769927210432 0.010102145475571356475 -0.010360268924197888959 -0.011016810989853631497 -0.011426186941024077739 -0.011236535304880793107 -0.00527208111379401205 -0.0035779456295000730721 -0.0012242345959214131698 -0.0012242260873513500282 0.0010795782241841884487 0.003607803385188875292 0.0018114712825275914275 0.00094994811532385977498;0.002612590935307244986 0.001819308964631354995 -0.009053307865163588361 -0.0090533095055943309942 0.012173322120757862352 0.039362507314458616836 0.035995039018450789015 0.026447901502006564145 -0.0042244624229931760848 -0.0064027747762492289232 -0.0077331134723267486858 -0.00773311423694443556 0.007708283095832172728 0.0029543663428958210487 0.0051014385423404067649 0.0067965189519933518619 0.0091100031319774361221 0.0068733128818890057432 0.00080746458526669017981 0.00080746488690630689299 0.0024047792451138373312 0.015044358265490130611 0.012489186961351225399 0.0080294091462050527774 0.008337442702159096955 0.0081042961734226256348 0.0077984346341279323772 -0.011210523132264811966 0.020459663959213204854 0.011749452700316374842 -0.0016599602668783577757 -0.0016215692973515019332 -3.4336673775996351822e-05 -0.0066468026519475248773 -0.0046591527932762898806 -0.0069309501802602355158 -0.010244989396661210307 -0.010244987140770937112 0.010506819318469355629 0.011172735930739412236 0.011588020868727528373 0.011395666370078575899 0.0053477822664026505167 0.0036283708343937109281 0.0012392942857023074577 0.0012392856521925477067 -0.0010924201941134919699 -0.0036564431191774176069 -0.0018341472319380043403 -0.00096042174578804691797;-0.0025930369544760419921 -0.0018052107697174369413 0.0089925776185873843027 0.0089925792478706099986 -0.012091107819871292628 -0.039092377303657159515 -0.035748441046712771396 -0.02626729921400316678 0.0041964538659168496709 0.0063594009101310263951 0.0076795673289115481616 0.007679568088252321581 -0.0076545253450879674473 -0.002930600501215882385 -0.0050637688189653987103 -0.0067481215812241731114 -0.009046309551688776901 -0.0068254936509681840562 -0.00080237513106541625239 -0.00080237543074560696305 -0.0023872836078346446227 -0.014937825730659787943 -0.012400764147124971812 -0.0079723863064330800082 -0.0082713986029747353645 -0.0080563997866915596641 -0.0077517225826407038652 0.011136937722338988502 -0.020323874752174009295 -0.011671624807654493866 0.0016487014151165104228 0.0016066482902044980363 2.0469523039988399033e-05 0.0065910733226526392256 0.0046214917488363021353 0.0068768580013355128794 0.010166873665353058989 0.01016687142501691149 -0.010426795493437411577 -0.011087441484366142644 -0.011499909427179383012 -0.011309104642410226088 -0.0053065919623016960527 -0.0035978213395921423458 -0.0012232044021959402689 -0.0012231958253346012812 0.0010771579965732833422 0.0036225662523048296135 0.0018127576102318148591 0.00094536932507553142913;0.0025910439390011753315 0.001803808453240639308 -0.0089858824700971007271 -0.0089858840981624967664 0.012082088725195548953 0.039063088684484228996 0.035721669405386090312 0.026247645258900196424 -0.0041933341027440874937 -0.006354650086794135129 -0.0076738041400344131002 -0.0076738048988066395739 0.0076487727953874935782 0.0029283349558663811577 0.0050599210336036712712 0.0067430297540146590801 0.0090395102832960087802 0.0068203660143758846127 0.00080177580014478865619 0.00080177609960206555704 0.0023854854606354561168 0.014926587528194789831 0.012391437213074049661 0.0079663899408012953107 0.0082650886556830931856 0.0080504958277164730129 0.0077460380220897460599 -0.011128704208754301719 0.020308664538016506923 0.011662861443826813904 -0.0016475370603083680249 -0.0016053523542632821153 -2.0296670566790412347e-05 -0.0065860085992597459589 -0.0046179614671397577197 -0.0068716240745528619355 -0.01015915282223114717 -0.010159150583571280313 0.010418877906894557714 0.011079012614543637394 0.011491174057876399686 0.011300517624666684205 0.005302505912934766738 0.0035950028100858602911 0.0012221461034813893825 0.0012221375330108996161 -0.0010762076341331965057 -0.003619711065125540226 -0.0018112526129497475563 -0.00094451337573918641571;0.0025906477323463890025 0.0018037524578768703628 -0.0089813003466784595979 -0.0089813019739764365229 0.012076181072798730654 0.03904596799224763215 0.035705811602094524038 0.026235719241487508169 -0.0041910090188121713189 -0.006351582673145539891 -0.0076706924314752312002 -0.0076706931899368007918 0.0076458703273019684374 0.0029288923100477481064 0.0050591018155215191146 0.0067409942679727665252 0.0090361803014906930814 0.0068177138524807114409 0.00080113834540961612399 0.00080113864467327359879 0.0023850314260114168115 0.014921906764243469262 0.012387557806192111762 0.0079640105228576969082 0.0082665413905471871181 0.0080427482063479150548 0.0077389684400339621081 -0.011122348240193506361 0.020296829090927108463 0.011655776453387493852 -0.0016471954983561269345 -0.0016065409910574319184 -2.8235967432281704491e-05 -0.0065889556991641515596 -0.0046192399275052052621 -0.0068723774037992655522 -0.010159164512506818276 -0.010159162274765268924 0.010418835879760631954 0.011079035549330502192 0.01149101131763642647 0.011300322651642564359 0.0053024150283470473585 0.0035963404821959519576 0.001225675578228398177 0.0012256670129972952431 -0.0010799101317436024701 -0.0036229852583144457959 -0.0018152936847095251308 -0.00094870401789868261978;0.0025837197801220350597 0.0017984983862460864838 -0.0089635648157054617635 -0.0089635664396647846824 0.012051838069705628903 0.038963401306676394287 0.035630695413141386108 0.0261810581235165582 -0.0041830685749788560496 -0.0063386845601989703566 -0.0076540078274409551612 -0.0076540085842627982038 0.007628869898549415357 0.0029193006841284558153 0.0050458191055644061734 0.0067250375642114203212 0.0090159147743401179403 0.0068026706087557647917 0.00079993774447452089833 0.00079993804321758644853 0.0023789454021839366929 0.014887008683989479824 0.012358585797590490238 0.007945188869105373336 0.0082399960505119326098 0.0080334237715470654256 0.0077293259515180843741 -0.01110176596016281339 0.02025896579525711394 0.011634414698485952278 -0.0016433354345085013359 -0.0015995725476531078187 -1.4053204516864393998e-05 -0.0065646149793692262081 -0.0046035949025792083367 -0.0068511278446111026699 -0.010129691225524716652 -0.010129688992613527371 0.010388703564664914653 0.011046842233246279355 0.011457965015171805295 0.011267897152356728604 0.0052869823366730288317 0.0035833097237016509236 0.0012156262153773821945 0.0012156176656014940594 -0.0010699777931237157425 -0.0036065158489144511292 -0.0018026687294243103413 -0.00093830031301393105724;0.0025765393971387850515 0.0017933245648219049619 -0.0089412181737959037925 -0.0089412197936542849031 0.012021590090988095931 0.038864047659703825077 0.035539993636425584733 0.026114626056216207195 -0.0041727595997148340598 -0.0063227274224103673095 -0.0076343177054148539731 -0.0076343184602962301313 0.0076091050649711809012 0.0029105887919700407403 0.0050319863901091841166 0.0067072516779173715559 0.008992498377473949478 0.0067850880592103708644 0.00079806122518379714759 0.00079806152320520450452 0.0023725200067297833213 0.014847855697716298012 0.012326088665613712386 0.0079242336667979425269 0.0082157862586412118422 0.0080157418634590350132 0.0077120882296414150145 -0.011074678673238766077 0.020208975831391744193 0.011605758046986970611 -0.0016392009601827529138 -0.0015941140806048719435 -9.079975740984079464e-06 -0.0065442108484762822468 -0.0045897956396607148336 -0.0068312925446665428639 -0.010101031162126926366 -0.01010102893493558876 0.010359342659967275824 0.011015548463319155617 0.011425635056082609001 0.011236135323926935148 0.0052718672204118228672 0.0035721191053954721994 0.0012097721575136661902 0.0012097636285966666733 -0.001064429893323863216 -0.0035941324201934979343 -0.0017948776876518910024 -0.00093283642093766486279;-0.0026246738342044595264 -0.0018280225152899841866 0.0090908066091055974439 0.0090908082564200905912 -0.012224088967409497269 -0.039529330351074559724 -0.036147327480185169335 -0.026559431170386352261 0.0042417550695451194942 0.0064295584726956093655 0.0077661844458646557207 0.0077661852137414300393 -0.0077414867061434463474 -0.0029690618143183946688 -0.0051247161591340068335 -0.0068264168333888484638 -0.0091493445103884730313 -0.0069028477476355534423 -0.0008106045854175899807 -0.00081060488826664321618 -0.0024155901549394185115 -0.0151101681460521272 -0.012543809805289983517 -0.0080646360040221697768 -0.0083782818246485937785 -0.0081338342425091390148 -0.0078272468164317845346 0.011255953584109329446 -0.020543492096087613563 -0.011797495509227144683 0.0016669185140290084662 0.0016308021891625469439 4.2982955039529023762e-05 0.006681279310380068906 0.0046824447477643166282 0.00696439410602263647 0.010293276505955841968 0.010293274240459258234 -0.010556285408870649464 -0.011225460570205706909 -0.011642485132704674666 -0.011449172408215857466 -0.0053732412874829922275 -0.0036472654421070400087 -0.0012492709970814395732 -0.0012492623286027939623 0.0011018868815769631772 0.0036774127858884052625 0.0018474048829583448669 0.00096976334311028812487;0.0026019672580084285927 0.001811649131718661614 -0.0090203172664824124438 -0.00902031890085740716 0.012128660335707617396 0.039215760032076441011 0.035861075745010045912 0.026349790492810658271 -0.0042092475115185212786 -0.0063792124172854947767 -0.0077040242665689000548 -0.0077040250283198826592 0.0076790786384657826191 0.0029414527851365406333 0.0050809724196824715067 0.0067702257953644231353 0.0090754008035076622757 0.0068473347230908051739 0.00080470024573502487494 0.00080470054631027467754 0.0023952738170675311018 0.014986481841589963798 0.012441149060158486137 0.0079984298672163157279 0.0083015562252683403055 0.0080782828057684111928 0.0077730637993087634691 -0.011170549993964310267 0.020385901721666408598 0.01170717629888563642 -0.0016538429966527856772 -0.0016134607954316104901 -2.6790473259099971978e-05 -0.006616518477182547868 -0.0046386882963165869051 -0.0069015588023519786054 -0.010202546211039640461 -0.010202543963599200114 0.010463339473191729176 0.011126392282504022485 0.011540146905165749036 0.011348634465172958985 0.0053254026040913549772 0.0036117706696029562401 0.0012305474065889513303 0.001230538803850903147 -0.001084122776506141585 -0.0036380322022018310446 -0.0018225200283722867243 -0.00095223758901947380424;-0.0025848113224285827576 -0.0017995927624948927781 0.0089624690688726929566 0.0089624706927295370862 -0.012050750124198126439 -0.038962891365665816568 -0.035629924078568506185 -0.026180075479134638783 0.0041822795852934991148 0.0063381763616948347262 0.0076542837170360611757 0.00765428447387974005 -0.0076294432535668234296 -0.0029220160719226327163 -0.0050478456328191404281 -0.0067263263580296939192 -0.00901674000424000123 -0.0068030868175784717927 -0.00079950726559093203329 -0.00079950756423742964756 -0.0023797878411621351327 -0.014889577367756543294 -0.012360725287397535815 -0.0079467321203816436437 -0.0082474112637047937435 -0.0080270299920360346779 -0.0077237406972598347116 0.011099361274472526601 -0.020254392655100809939 -0.011631391549754286838 0.0016438090447625907514 0.0016024002717876279119 2.5818246873214104178e-05 0.0065731738656133326115 0.0046084253371715972608 0.0068566177541235688933 0.010136180307598254002 0.010136178074626264398 -0.010395278946862734903 -0.011053941401954982607 -0.011465049289774445485 -0.011274809852526322326 -0.0052902763937335683248 -0.0035876322930410162529 -0.0012216813852665667651 -0.0012216728378027740236 0.001076195726648357864 0.0036137031320413316553 0.0018098469011262336825 0.00094515350289717031326;-0.002514389195510460806 -0.0017514291111208649902 0.0087056661419328829066 0.0087056677194888472393 -0.011706457416883520734 -0.037857663927900193912 -0.034618385413190233546 -0.025435705366941858269 0.0040614767306528746366 0.0061571270598517685926 0.0074383956633660040444 0.0074383963988830193934 -0.0074152020611075184289 -0.0028480607861842018556 -0.0049114212348399400448 -0.0065399637153279776072 -0.0087640909603558542901 -0.0066116974415608943325 -0.00077515591296884974511 -0.00077515620281823208789 -0.0023155509857269037342 -0.014476969912227233978 -0.01201831449020743757 -0.0077272843096462522777 -0.0080404869578058462548 -0.0077780648411016556701 -0.0074863744552113370076 0.010779011141889869446 -0.019662753319912247563 -0.011289042252942020628 0.0016016179075468304962 0.0015654874787883088678 6.7985346807120450112e-05 0.0064178669131310268903 0.0044954558733033417317 0.0066822276504233260944 0.0098722864396019426036 0.0098722842695292880449 -0.010124334973994550402 -0.010765942155775812955 -0.011165435276486815677 -0.010980061916088962662 -0.0051502519597852137664 -0.0034995998597353076241 -0.0012070982514136856419 -0.001207089954242303179 0.0010663485155193745332 0.0035360581538417712628 0.0017830433602472604056 0.00094147321378980418187;0.002620904771143703002 0.0018253611813677111681 -0.0090782818178718437119 -0.009078283462905340287 0.012207205573786784197 0.039474416544884989577 0.036097141533684366788 0.026522599920833160592 -0.0042359269088593108285 -0.0064206633767228751819 -0.0077553683898981002481 -0.0077553691567079797303 0.0077306821271346543717 0.0029647358223402783643 0.0051174424203219610885 0.0068168310056424628179 0.0091365695712212740415 0.0068932194053240953766 0.00080949269107416618914 0.00080949299350790873513 0.0024121941053616762982 0.015089019063677749227 0.012526257350937501991 0.0080533466760648875216 0.0083662377842056399879 0.0081229436429177386686 0.007816744825935147134 -0.011240581666967258689 0.020515095540559386 0.011781145317655766086 -0.0016647226390020680459 -0.0016282910411180085471 -4.232537906380688577e-05 -0.0066715381807060051417 -0.0046756871175595501877 -0.0069544227032781692419 -0.010278612718104564866 -0.010278610455753303676 0.010541250193010973796 0.011209451563979669006 0.01162590175613301309 0.011432872140605922912 0.0053654841201090245142 0.0036418562781130501237 0.0012471139648522276255 0.0012471053082935570043 -0.0010999276717681700632 -0.0036718539550002694989 -0.0018443784080007564769 -0.00096796324906304445548;-0.0025652822915572643346 -0.0017852923481020373849 0.008905029905735098103 0.008905031518977696639 -0.011972707884744830317 -0.038704274194541032905 -0.03539405497911753129 -0.026007629951977952187 0.0041559921958894000329 0.0062969565805831399785 0.0076027499276230823058 0.0076027506793920774514 -0.0075774935897687280273 -0.0028972870559786684415 -0.0050102796678052575682 -0.0066790036193156926761 -0.0089550844325606854951 -0.0067569431064236872009 -0.00079493574506151116251 -0.00079493604189859840784 -0.0023624115397271965543 -0.01478560304597980983 -0.012274420576504579614 -0.0078909583113649980207 -0.0081787876763383688533 -0.0079856894910611091187 -0.0076829569171235050778 0.011030536328074231484 -0.020127479125372563229 -0.011558937765524079921 0.0016326778166686896181 0.0015860693533811059085 4.1064784618113263706e-06 0.0065136206352562351155 0.0045688618068928281771 0.0068008291369185697867 0.010056644378204811219 0.010056642160188703633 -0.010313851898416062647 -0.010967086367844934222 -0.011375504163371304156 -0.011186873280037435904 -0.0052484259125715740021 -0.0035552475075719489755 -0.0012019197392465982583 -0.0012019112444389655481 0.0010571111518351097077 0.0035760787312438414159 0.0017842008245021162127 0.00092581555140967125832;0.0026274727672065175538 0.0018300277909405920137 -0.0090996851309513102773 -0.0090996867798914492231 0.012236092005896441817 0.039568641671484196254 0.036183226897750754569 0.026585740309463586767 -0.0042458615823658119037 -0.00643588822411093886 -0.0077739612675418240037 -0.0077739620361852081881 0.0077492819845608237189 0.002972406071123811621 0.0051301112565622850048 0.0068334028151920550576 0.0091585745168795400922 0.0069097857797984383807 0.00081136267652827235609 0.00081136297966632260799 0.0024180999811476006078 0.015125556795795306458 0.012556582192839942091 0.0080728659945706170847 0.0083875807873801128817 0.008141065837398441668 0.007834272619655795189 -0.011266756060143398241 0.020563432155850717292 0.011808940955740501039 -0.0016685362866669275865 -0.0016328552859166906106 -4.451260172260553601e-05 -0.0066890305666902662163 -0.0046877223636858046316 -0.0069720342960499651422 -0.010304369512163109521 -0.010304367244406720597 0.010567652371323125321 0.01123757246282018965 0.011655007363090280278 0.011461476334429602023 0.0053790959107630235622 0.0036515297470625556267 0.0012513603596150078834 0.001251351682801130679 -0.0011038491117561395616 -0.0036820422958116264499 -0.001850218527888900389 -0.00097166872771223971889;0.0025958624056067448015 0.0018072524159213143938 -0.0090012867447763524054 -0.0090012883756596939744 0.012102903729538455613 0.039131180037086460421 0.035783859030953393821 0.026293232324372035891 -0.0042004662785742243741 -0.0063656250313769155783 -0.0076872644655132721034 -0.0076872652256125143314 0.0076622572601784087742 0.0029340549074874391032 0.0050692107005435053588 0.0067550938807632212452 0.0090554726869524222038 0.0068323700782683474686 0.0008031000389192124219 0.00080310033887952692998 0.0023898096038588978983 0.014953169241536022616 0.012413499479392787334 0.0079806015658522837936 0.0082809961551222003445 0.0080631870347340813682 0.0077583515575579626092 -0.011147474418597638421 0.020343316794996790797 0.011682762198318513702 -0.0016503258387200400465 -0.001608833679464342914 -2.2634531000404396918e-05 -0.0065992057474793617416 -0.004626973550932860467 -0.0068847101966906668405 -0.010178192066314093941 -0.010178189823742359726 0.010438389302975210199 0.011099800230963527761 0.011512672680588349403 0.011321642724474263383 0.0053125584124881237297 0.0036022741035473346966 0.0012256051604250402763 0.0012255965754588331665 -0.0010794422289069492867 -0.0036275391224766060511 -0.001815936278580980532 -0.00094763274405116346491;-0.0025603629994267749007 -0.001781680508801789008 0.0088907015418960046171 0.0088907031524875033274 -0.01195322696350936513 -0.038639617499194083006 -0.03533509539201898364 -0.025964537779366678172 0.0041494444198353439696 0.0062866655032386377019 0.0075898543034362848242 0.0075898550539355777445 -0.0075644843889887533259 -0.0028910161805289031831 -0.0050008207334178789508 -0.0066671284801347093646 -0.0089396396755030450854 -0.0067453903982207909576 -0.00079380596694539535575 -0.00079380626333307483748 -0.0023580396799780601116 -0.014759520273971499932 -0.012252770253420176838 -0.007876961972267636225 -0.008161391476081391802 -0.0079755574517342137097 -0.007672938383316123441 0.011013404548565690344 -0.020095885759303551421 -0.011540913504503147458 0.0016298815859985024516 0.0015818937678363075711 -1.6961620414303823189e-06 0.0064984561165601847921 0.0045588144079436324421 0.0067867032116237886383 0.010036547973840717965 0.010036545759566566777 -0.010293279819684369655 -0.010945140147754219354 -0.011352885711715200723 -0.011164662569709904796 -0.0052378531933238384882 -0.0035470092317757867702 -0.0011967831921997679114 -0.0011967747104864767844 0.0010521387636655212157 0.0035664395476060141606 0.0017775572614281394748 0.0009207596992310748945;-0.0026134536061445585477 -0.0018199450553867191956 0.0090557811415084982221 0.0090557827823977525561 -0.012176688506995702113 -0.03937370897024301819 -0.036005250791945130062 -0.026455361159482240069 0.0042255900726027428166 0.0064045538320435932075 0.0077353513169401057897 0.0077353520817780895349 -0.0077105434279642606418 -0.0029554790269081909586 -0.0051030972648994392046 -0.0067985894798807755893 -0.0091126879349143589948 -0.0068753191561671967574 -0.00080765616757760524177 -0.00080765646929419391241 -0.0024055451861554619578 -0.015048903697523170059 -0.012492960074383725744 -0.0080318499531531039465 -0.0083405293615138910435 -0.0081059920100099939339 -0.0078001185745032444382 0.011213470718888873465 -0.020465095271500467061 -0.011752546840147072571 0.0016604506328143139177 0.001622319367521227098 3.5455998262669811321e-05 0.0066495134430060841985 0.0046609406825322934054 0.0069334512607064401404 0.010248534825593428807 0.010248532569053985658 -0.010510448015306527239 -0.011176607770339564568 -0.011592009091108270574 -0.011399582292556588448 -0.0053496453403756218797 -0.003629839204399657078 -0.0012402417796176868139 -0.0012402331438605995219 0.0010933408101973327714 0.0036581821068080288412 0.0018353668529850399732 0.00096136299139416890938;-0.0025800117427680672143 -0.001796371979408927606 0.0089440652154153272441 0.0089440668359708312696 -0.012026143992237146169 -0.038884432825264408917 -0.035558061946630165062 -0.026127119740864540587 0.0041735715056909483689 0.0063252468642230660206 0.0076390254989576857406 0.0076390262542934059264 -0.0076143556030164030388 -0.0029172637805925331206 -0.0050385389283792774914 -0.0067133450060602121306 -0.0089989765556362736471 -0.0067895921806365661447 -0.00079770133675626040803 -0.00079770163476134651071 -0.002375387922376885879 -0.014860791816288819456 -0.012336838835786899035 -0.0079314553403008695304 -0.0082340990252918327963 -0.0080082114717903440937 -0.0077058936072425775199 0.011076221938486952023 -0.020211594620480614198 -0.01160655031845514093 0.0016409208220391929313 0.0016002915713355624072 3.0969385188757485002e-05 0.006563732246548270588 0.0046013021975585361931 0.0068452598981317515012 0.010118658273001462575 0.010118656044477234573 -0.01037727272793579486 -0.011034820281880863141 -0.011445102388856820408 -0.011255177070676148851 -0.0052809398200058428607 -0.0035821712420504221198 -0.0012217473052387457615 -0.0012217387759451889522 0.0010766274898880109391 0.0036095093490859388695 0.0018092549091421889895 0.00094614014816073589535;0.002597045995774923538 0.0018082309130809824313 -0.0090031364593013401415 -0.0090031380905643190043 0.012105568792543279846 0.039141184433943487786 0.035792867342429320054 0.026299659686757400484 -0.0042012038429290127564 -0.0063670578447070514533 -0.0076894013275782728892 -0.0076894020878859534185 0.0076645233432899540979 0.0029360601912007300469 0.005071460838197069769 0.0067574488914359902292 0.0090582170788518316662 0.006834347518474189094 0.00080311674730592546093 0.00080311704730093335432 0.0023908147432851636731 0.014958244311841065871 0.012417714946413770105 0.0079833868355550924312 0.0082865174417558109393 0.0080623915318120253221 0.0077578411035404398061 -0.011149277893499631026 0.020346583930230196374 0.011684469842373373591 -0.0016509468440933392028 -0.0016105496611667972744 -2.7957869899023186455e-05 -0.0066048035462882449115 -0.0046303675252601312132 -0.0068889942324586979708 -0.010183791683469851225 -0.010183789440285218389 0.01044409623913676935 0.01110591988751605079 0.011518892802747640255 0.011327734336734469195 0.0053154573177903903514 0.0036051902678817110415 0.0012286814836839721286 0.0012286728975191229217 -0.0010825536677139479223 -0.003631750070019995006 -0.0018196712734241387178 -0.00095099547065060415375;-0.0025924973940501293626 -0.0018048503502206554149 0.0089904845328263784804 0.0089904861617346072677 -0.012088311068922871772 -0.039083473216063945033 -0.035740284166478543393 -0.026261286446359232566 0.0041954621171035001367 0.0063579315201960058881 0.0076778374249466870699 0.0076778381841165104296 -0.007652816200299246592 -0.0029300741561118981079 -0.0050627224628864266401 -0.0067466548037307212324 -0.0090442981416317767135 -0.0068239645960388164644 -0.00080216814394000717902 -0.00080216844354698150013 -0.0023867884941346233403 -0.014934572230481344204 -0.012398064423919361726 -0.0079706605309922112096 -0.0082699241905293680022 -0.0080542339379874282324 -0.0077496709105959278238 0.011134301480042553545 -0.020318996391587601513 -0.011668791129817057683 0.0016483768075522744079 0.0016064222925071488558 2.1111202933636252972e-05 0.0065900436682715130693 0.0046207070745377032059 0.0068755960390397656556 0.010164917125878402196 0.010164914886046580444 -0.010424784432470768705 -0.011085306386321686078 -0.011497680592317186324 -0.011306910642713373719 -0.0053055480734423791228 -0.0035972221657726661734 -0.0012232407726834111823 -0.0012232321978947917947 0.0010772366739157334097 0.0036221250297539578887 0.0018127249176395816583 0.00094551409610988627202;0.0025796021966844975316 0.0017958280194747804764 -0.0089464223763497923575 -0.0089464239972582067922 0.012029015112437374188 0.038891386992546100876 0.035564657726699602791 0.026132288289866564823 -0.0041748871722564794354 -0.0063267075594761962645 -0.0076400985435479042834 -0.0076400992989938219108 0.0076151932613694730753 0.0029156433515868532616 0.0050378121133564475118 0.0067134744183401286882 0.0089998521034036025462 0.0067904139565604249712 0.0007981726827781401119 0.00079817298090874787796 0.0023751305654487807166 0.014861295516884311455 0.012337250867834121532 0.0079315888302636840257 0.0082297051541925566459 0.0080145384041745235809 0.0077115385818588124203 -0.011079949087073921385 0.02021857782865838643 0.011610876691328262875 -0.0016408128478267453975 -0.001598366374382745661 -2.1797022006786497461e-05 -0.006558164683912118785 -0.0045983106224384623015 -0.0068421331826808151622 -0.010115305646564039938 -0.010115303417712018588 0.010373896541914912756 0.011031148064290792477 0.011441510545978894262 0.011251686482462880737 0.0052792737788465967166 0.0035794163336698246042 0.0012172421688350482626 0.0012172336363007671411 -0.0010719707993532099233 -0.0036045207832998290252 -0.0018039710119480206144 -0.00094096517463588061347;-0.0025716375236051647497 -0.0017901458307604159025 0.0089208066523743228399 0.0089208082686000871736 -0.01199441502328738203 -0.038778302674563266961 -0.035461364715650617319 -0.026056557182384199045 0.0041630177738827432374 0.0063084664143928355709 0.0076177560878930208194 0.0076177568411360764219 -0.0075928204642232832028 -0.0029062337192309216014 -0.0050224523899862786799 -0.0066934835301499153587 -0.0089733728830211009764 -0.0067704944831180509379 -0.00079596008931313183034 -0.00079596038660534448785 -0.0023679771332910234602 -0.014817238610268521418 -0.01230068467797081587 -0.0079080395631286447972 -0.0082035292065970599751 -0.0079932563703039721803 -0.0076909095737424520989 0.011048699389753139852 -0.020160891523887208149 -0.011577736348095479454 0.0016361935397273736671 0.0015926787645971875792 1.8293270502425274681e-05 0.0065365261095213416168 0.0045835012535581955151 0.0068205801363117879443 0.010083899691999123269 0.010083897469641091293 -0.010341709369324573672 -0.010996858859918147086 -0.011406040131238073462 -0.011216830687682269319 -0.0052626901346035656962 -0.0035674840071043835941 -0.0012116957249541661888 -0.001211687216565073737 0.0010668022873127668351 0.0035917551961431601684 0.001796426751433309512 0.00093600825163758696185;-0.0025912347234096949795 -0.0018039111949762916785 0.0089869830241581030728 0.0089869846524143516542 -0.012083533830186472119 -0.03906748974129110874 -0.035725721711366169309 -0.026250660381447840641 0.0041938738481061233962 0.0063554050722934253212 0.0076746338303100907971 0.0076746345891646793394 -0.0076495721778010710573 -0.0029284093452298107577 -0.0050602970519980994615 -0.0067436618684865437187 -0.0090404408186374081435 -0.0068210876883957284253 -0.00080190644684591076696 -0.00080190674634564469963 -0.0023856712368200854758 -0.014928009167644463312 -0.012392616329349423129 -0.0079671317927605331266 -0.008265309747557850889 -0.0080519907031703658734 -0.0077474221653144699148 0.011130159619847129066 -0.020311366551391159263 -0.011664455862976911074 0.0016476640008971118849 0.0016052718808461047349 1.9185533019935596146e-05 0.0065859341494750849727 0.0046180192683265884959 0.006871871302221450005 0.010159673045793351023 0.010159670806890300221 -0.010419419027253375848 -0.011079579126063436589 -0.011491787539816189848 -0.011301125631073083086 -0.00530279498924359112 -0.0035950041709018384223 -0.0012217184936304339472 -0.0012217099219869922543 0.0010757482567462905293 0.0036194409797794882544 0.0018107828198517749406 0.00094397857000190802616;-0.0025774496375580266579 -0.0017939977751731742139 0.0089437979969056134733 0.0089437996172429638786 -0.01202510434620869019 -0.038875763212561718907 -0.035550671768771191505 -0.026122423448678048358 0.0041739337116809540826 0.0063245849955411463303 0.0076366606819430922493 0.007636661437055072138 -0.0076114736174159028023 -0.0029117713810178661935 -0.0050337355218268049761 -0.006709426576390249003 -0.0089953127946285401512 -0.0067871898701278793667 -0.00079825884844981391877 -0.0007982591465510984613 -0.0023733269018176169317 -0.014852628354425049736 -0.012330050398867418646 -0.0079267975139914806371 -0.0082190651843395568649 -0.0080174719959435203354 -0.0077138113513741937352 0.011077745052165450731 -0.020214627743650428332 -0.011608975463012987869 0.0016397161675323471998 0.0015949185283718192441 1.0329726252886966642e-05 0.0065471042946320242781 0.004591698596031562607 0.0068339461126685017295 0.010104784102410342694 0.010104781874539475739 -0.010363183300569515227 -0.011019647052228040071 -0.011429855292800876476 -0.011240278750378300543 -0.0052738394298923636783 -0.0035736852803555383198 -0.0012108049946522498903 -0.0012107964633996726785 0.0010654356976947908231 0.0035960007581540736135 0.001796202666212998178 0.00093386803383606288229;0.0025811098365937854004 0.0017966552959999472928 -0.0089548948989717630509 -0.0089548965213520452522 0.012040150785590503571 0.038925385976494857043 0.035595953277967065653 0.026155561308768931345 -0.0041790343339982351928 -0.0063325269194530560066 -0.0076465196852049605383 -0.0076465204412882068971 0.0076213894468238627469 0.0029163033541970287757 0.0050407817172436796341 0.0067184002092547535218 0.0090070701853910469653 0.0067960047624669216518 0.00079916853443993713258 0.00079916883289555520811 0.0023765934312558736549 0.014872364957603875432 0.012346432341732539034 0.0079373718329534131977 0.008231650745598026106 0.0080258903424924536024 0.0077220606654226789725 -0.011091125501493796432 0.020239312767919261787 0.011623099798538981051 -0.0016418135599474751023 -0.0015978318748828502713 -1.3585940842533952995e-05 -0.0065578627535315256111 -0.0045989117846533776601 -0.0068442192643559662812 -0.010119533250556858248 -0.010119531019823256937 0.010378288376401690468 0.011035752460316003432 0.011446477607976405372 0.011256605882529500257 0.0052816096546994314304 0.0035795614451356390535 0.001214127485259704339 0.0012141189437334901514 -0.0010686158352561582648 -0.0036026607499929251197 -0.0018005668168298504753 -0.00093704780083656306813;0.0025629709704225321805 0.0017837063173238858378 -0.008896678067580685717 -0.0088966796793160558832 0.011961504918407975945 0.038668266328032704915 0.035361103951515031329 0.025983388191251170773 -0.0041520660514301251792 -0.0062910632452653474783 -0.0075957105422157118746 -0.007595711293289592915 0.0075705038190755557723 0.0028948399195196350929 0.0050058060865440529713 0.006672912637677676749 0.0089468411252802172717 0.0067507012456906783163 0.00079414764179374253833 0.00079414793834536466424 0.0023603077499650677688 0.01477212540069740461 0.012263235901565612898 0.0078837880429503751079 0.008171952079169786734 0.0079776585709839999833 0.0076752942486062935776 -0.011020134221823924686 0.020108253027045882438 0.011547814142663107018 -0.0016313043561608812568 -0.0015848268714222578206 -5.3352816218014631152e-06 -0.0065084534209638956678 -0.0045651209677078285684 -0.0067950783529228293844 -0.010047964041662022297 -0.010047961825695794075 0.010304940692461990806 0.010957612021272386885 0.011365651788537965011 0.011177181895780591639 0.0052438167617666134324 0.0035523199188263977419 0.0012013645675777212714 0.0012013560808968037907 -0.0010567083676234511648 -0.0035734565331453438733 -0.0017832347262877960414 -0.0009256063441735213216;0.0025591324680276465731 0.0017807903157491184517 -0.0088869234850613588322 -0.0088869250949583939586 0.011948108522483909255 0.038622770136980240363 0.035319718622350643189 0.025953280267932244546 -0.0041477048116955773926 -0.0062839645840827894688 -0.0075865111874237403655 -0.0075865119375936257776 0.0075611251965840330438 0.0028895073945084028683 0.0049984511824635955574 0.0066640967921160918983 0.0089356581810069047461 0.0067424031424165361409 0.00079349253665712750783 0.00079349283292347544232 0.0023569401786271166471 0.014752849553582081388 0.012247233457363898221 0.0078733898166890112919 0.0081572004075278620183 0.0079726313210163133466 0.0076700783788481337322 -0.011008837513547201775 0.02008745804818767508 0.011536086812068429078 -0.0016291751157065438062 -0.001580935425640506457 2.6736591972255187365e-06 -0.006494897534292973923 -0.0045564186145605166389 -0.0067832760091321728582 -0.010031612439927985181 -0.010031610226624765661 0.010288224418581943739 0.010939750903067580606 0.011347320869574782989 0.01115919605562472848 0.0052352514277392526651 0.00354506145563678347 0.0011957209172041493792 0.0011957124390027721022 -0.0010511265688825314601 -0.0035642568420528805695 -0.0017761536462785989295 -0.00091975452608901810993;0.0025594071918614989987 0.0017809911016172764401 -0.0088877371203372537711 -0.0088877387303845280936 0.011949213481134379061 0.03862642771056106622 0.03532305487943688399 0.0259557199776719906 -0.0041480775330494197226 -0.0062845480845182127849 -0.0075872394930666959417 -0.0075872402433083034959 0.0075618589883167585883 0.0028898534315466542673 0.004998979653927934988 0.0066647642077855284715 0.0089365288967430088485 0.0067430550724623550957 0.0007935577743593519957 0.00079355807065141254365 0.0023571847306058510071 0.014754316301374519049 0.012248450926022821927 0.0078741763725385764683 0.0081581607224140793161 0.0079732243464579674597 0.0076706624417590442422 -0.011009813781427681481 0.020089258868109055589 0.011537115498504868158 -0.0016293317326717719155 -0.001581162635026913104 2.3825864799894154152e-06 -0.0064957280613827947727 -0.0045569715347429330318 -0.0067840574713518217442 -0.010032728354230349352 -0.010032726140715748572 0.01028936695795845159 0.010940969493684803149 0.011348577518017044508 0.011160430188656500841 0.0052358388923073066398 0.0035455136835220073602 0.0011959923066110508903 0.0011959838276619937005 -0.0010513881637320152476 -0.0035647792663340859866 -0.0017765067140521990582 -0.00092001884081915679889;0.0025570277493062055357 0.0017792823526630225685 -0.0088802478498774470306 -0.0088802494585521422193 0.011939083541895739726 0.038593211841908711679 0.035292725772677696616 0.025933498426716054125 -0.004144617290931761934 -0.0062792053387119017849 -0.007580663761327779103 -0.0075806645109212679456 0.0075552638519677407097 0.0028869925447973041749 0.0049943943704856535309 0.0066588438718138253519 0.0089287180638522676418 0.0067371863756588859853 0.00079292252584534865089 0.00079292282189443819094 0.0023550530066206265371 0.014741278585157436415 0.012237629716538692831 0.0078672015783913858827 0.0081502083140853869708 0.0079671951489851018657 0.0076647968329087634229 -0.011000715695002277403 0.020072465355083633776 0.011527481099761470798 -0.0016279588512267087908 -0.0015793911293606130181 3.8241145186993085879e-06 -0.0064890689916328727835 -0.0045524499994186746338 -0.0067775309012775295306 -0.01002327105587967962 -0.010023268844275673786 0.010279677038685279891 0.010930643385467050943 0.011337904808271586157 0.011149944144595113835 0.0052308485965229991471 0.003541854318124360284 0.0011941490120999317687 0.0011941405401657448175 -0.0010496502447343914518 -0.0035607749265257979815 -0.0017740370834682709332 -0.0009183209053978403898;0.0025928877459763070845 0.0018051222280643787303 -0.0089918364111125047289 -0.0089918380402657909628 0.012090128890127168487 0.039089350659096709639 0.035745659119852564445 0.026265235926057374505 -0.0041960944310932401374 -0.006358888509678370729 -0.007678990735882709924 -0.0076789914951663372153 0.0076539648422229477134 0.0029305053063682757163 0.0050634767643292629899 0.0067476648556181713715 0.0090456545269142572124 0.0068249892659192823094 0.00080229199731639115351 0.00080229229696889199121 0.0023871418811288380377 0.014936803861999267337 0.012399916458156981514 0.0079718497881469483485 0.0082711262465367859503 0.0080554723442053787624 0.0077508584248040029649 -0.011135972980802931118 0.020322085439729409284 0.011670574210988019989 -0.0016486062176194107159 -0.0016066580622608049762 -2.104551165365577646e-05 -0.0065909862702957242378 -0.0046213737830667189072 -0.0068765987473135923441 -0.010166410002923552749 -0.010166407762756094965 0.010426316025634915774 0.011086936040034937531 0.011499371832974478874 0.011308573597578053596 0.0053063393578569473946 0.0035977505079806417453 0.0012234013650389218789 0.0012233927889490426102 -0.0010773742337904957268 -0.0036226362795339531013 -0.0018129655011763518707 -0.00094562730362020362262;-0.0025952256309838659006 -0.0018069192239797149131 0.0089974715366108598547 0.008997473166834227612 -0.012097900829576268764 -0.039115997641285128739 -0.035769873902290041934 -0.026282818809737418936 0.0041985904792861458018 0.0063630125993806669824 0.0076844096185835547227 0.0076844103783992650722 -0.0076595126427315791615 -0.0029338510841843928705 -0.0050679537008010405036 -0.0067529397374101133439 -0.009052280655431524381 -0.0068298901354306865499 -0.0008026411941773747968 -0.00080264149398944840182 -0.0023891855886333896938 -0.014948318061987033931 -0.012409476093950388281 -0.0079780740882141234355 -0.0082803780093760881442 -0.0080579101249610880775 -0.0077534720915771997846 0.011142411061060215546 -0.020333912551257004447 -0.011677206317069045369 0.0016498980808797995053 0.0016091655487042414059 2.6693776599198912607e-05 0.0065996286132726225335 0.004626868039373007585 0.0068839644160995057745 0.010176524496085529586 0.0101765222543509469 -0.010436651363637321557 -0.011097984903744567003 -0.011510695136750367581 -0.011319680733079687598 -0.0053116251682735456455 -0.0036023527290096873238 -0.0012271963183185245934 -0.0012271877374409410205 0.0010811460686578984371 0.0036286092767166175897 0.0018176947167306200734 0.00094960897700103606874;0.002596676215794590549 0.0018079397405061142703 -0.0090023464990646989009 -0.0090023481301747861755 0.012104467771980837593 0.039137321871696370557 0.035789365716989818278 0.026297128575171271198 -0.0042008621712298190379 -0.0063664716952984354292 -0.0076886054720270982296 -0.0076886062322567639074 0.0076637006333130121283 0.0029354994763303460942 0.0050707543330176171881 0.0067566463996152651902 0.0090572306606288861125 0.0068336232367185861802 0.00080307770717843790162 0.00080307800715285516946 0.0023904944439173334003 0.014956499250038030047 0.012416265916117340956 0.0079824392612759791782 0.0082849693292932347077 0.0080622110172882625184 0.0077576129537487072824 -0.011148406621520664389 0.020344988200400246359 0.011683587635104106944 -0.0016507457690512628967 -0.0016101079374764651082 -2.6815321824659850642e-05 -0.0066033129162518990757 -0.0046294365414791425681 -0.0068877730339906174245 -0.010182143372002403978 -0.010182141129047406897 0.010442413448600543213 0.011104119027223254002 0.011517052422108046278 0.011325930077446881919 0.0053145987506027607405 0.0036044030970954453463 0.0012279644944730423815 0.0012279559089416478349 -0.0010818356017689391077 -0.0036306853256376585802 -0.0018187877284506802963 -0.0009502295468798137041;-0.0023285337186173429673 -0.0016242995970314453875 0.0080281771279352813486 0.0080281785833412385583 -0.010798135085794977397 -0.034941561791319200592 -0.031949536031679826031 -0.023471800717219010873 0.003743112488201087891 0.0056797049781575504462 0.0068686831139899724025 0.0068686837931837057755 -0.0068496834633590877178 -0.0026514874558352372926 -0.0045504240563635422676 -0.006047618855921218714 -0.0080968233865776860492 -0.0061063960234697851892 -0.00071132092685365728643 -0.00071132119356521561569 -0.0021452823259385743991 -0.013386111855058875283 -0.011112981207938934375 -0.0071468802079418629336 -0.0074881296323641138163 -0.0071257162652685057669 -0.0068638341840033178717 0.0099335858321237847923 -0.018106781430406036076 -0.010390000145789189678 0.0014876275996617838171 0.0014670242406875013286 0.00016864373245234167602 0.0060005923381088515853 0.0041930419234021895636 0.0062172625375648974191 0.0091704498606940496735 0.0091704478567819231599 -0.0094038385084054664648 -0.010000230008164827031 -0.010369015743850214586 -0.010196549950721538885 -0.0047795955859746891078 -0.0032651937917980125743 -0.0011648323637090294506 -0.001164824725112290375 0.0010364125163194600702 0.0033258484482971573809 0.0017071997114309802723 0.00092710832114715905142;0.0025807305739024618413 0.0017964109872528604295 -0.0089532918096984544926 -0.0089532934317938135671 0.012038018064913681357 0.038918669007850736907 0.035589792467517818164 0.026151009690623214232 -0.0041782680645533224958 -0.0063314079438149348938 -0.0076452239035564020439 -0.0076452246595114540725 0.0076201166344195070748 0.0029159739623809185355 0.0050400437946189272087 0.0067173275349546581955 0.0090055760160268737841 0.0067948637205669038322 0.00079900211593350567961 0.00079900241433160737198 0.0023762413377275805673 0.014869978437581267069 0.01234445221269239723 0.0079361103582894221287 0.0082307230665934153629 0.0080241018834954526417 0.0077203780691934191863 -0.011089080929531694095 0.0202355272052054877 0.011620892018537677323 -0.0016415804335654126441 -0.001597731543629921265 -1.4358582401460371779e-05 -0.0065572981174769773977 -0.0045984398495586874603 -0.0068434041989083663204 -0.01011821981533769961 -0.010118217584982285365 0.010376936015227957583 0.01103431961960781027 0.011444973815397097711 0.011255124088780031968 0.0052809050334612752178 0.0035792169834952601397 0.0012143041848258404308 0.0012142956449171851945 -0.0010688283931067771304 -0.003602505643830045904 -0.0018007191142626560818 -0.00093732574243998961587;-0.0026166293825670905102 -0.0018224088096972710076 0.0090631043418180814303 0.009063105984107285365 -0.012186826297297139593 -0.039408754584179417346 -0.036037070012066574343 -0.026478428076548810727 0.0042288072443717244706 0.0064099400717202185615 0.0077425131219256339982 0.007742513887466369836 -0.0077179017739011654756 -0.0029601306381986194384 -0.0051091763531092848627 -0.0068056528681162981737 -0.0091214886055887602068 -0.0068818105553874863584 -0.00080807634746165397845 -0.00080807664937964957409 -0.0024083137161673867123 -0.01506430045278066808 -0.012505744081371408805 -0.0080401875950831345335 -0.0083533882445748289247 -0.0081086264654627159681 -0.0078030582576005388593 0.011221737299853167327 -0.020480251492868934565 -0.011761001477956353409 0.0016622009806359051235 0.0016258745764069144121 4.3966276809663636311e-05 0.0066616735167787290844 0.0046686154591064864261 0.0069436502376934222322 0.010262444228137032609 0.010262441969528121599 -0.010524656062935256254 -0.011191802764890358343 -0.011607564216860575407 -0.011414837250584265738 -0.0053569005452535622958 -0.0036362878362428399312 -0.0012457852367359777308 -0.0012457765948841485401 0.0010988686755175926246 0.003666697816866292068 0.0018422434393379333566 0.00096722525266610401892;0.0025726902893260456331 0.0017905681532691200292 -0.0089289900761319752204 -0.0089289916937517442574 0.012005060279332553305 0.038809922983911775141 0.035490565278770765112 0.026078400444798428837 -0.0041671027745743324106 -0.0063140108227831299309 -0.0076236119972654418572 -0.0076236127510914712332 0.007598375157572284308 0.0029059957000375597966 0.0050245669305151166237 0.006697638910754207843 0.0089797942617736159487 0.0067755377236413099479 0.00079701566843191852443 0.00079701596605504464697 0.0023690681259565175669 0.014826679810685347571 0.012308513003327310742 0.007912909365405576545 0.0082030151681092254579 0.008005760131681824085 0.0077023931282414002247 -0.011059796777512474752 0.020181503884195144127 0.011589987609983557967 -0.0016369759264673368077 -0.001591298707274101153 -7.0238136597050118714e-06 -0.0065335752334637186428 -0.0045825497288693320744 -0.006820796642744572473 -0.010085785670503517181 -0.010085783446423184084 0.010343720352322288356 0.010998902757513997347 0.011408424336948105177 0.011219224438275839095 0.0052638198093150094167 0.0035662654854074975035 0.0012069201705030856066 0.0012069116530714898636 -0.001061753619266046127 -0.0035877879984486343683 -0.0017910332423868844699 -0.00093024107195843882753;0.0025978891022096091933 0.0018089719996456955775 -0.0090038108821083387423 -0.0090038125135377972824 0.012106653178076876368 0.039146075804129223941 0.03579719998043252166 0.026302651711316436117 -0.0042013921922843516094 -0.0063676587415920698695 -0.0076905348412866503249 -0.0076905356017036895569 0.0076657899021532012115 0.0029376884632301230281 0.0050730533710226797042 0.0067589243811994924663 0.0090597807157677574807 0.0068354330859524163252 0.00080302592868300133946 0.00080302622867315688604 0.0023915118919955657625 0.014961375910403945655 0.012420317551055937155 0.0079851363480457210331 0.008290987316654009967 0.0080605243058190102073 0.0077563025408432118707 -0.011149629388926456455 0.020347167088858936906 0.01168462848490673528 -0.0016513680394295445451 -0.0016120581684036469107 -3.3329340438312271295e-05 -0.0066095746348357664254 -0.0046331776224659872165 -0.0068924015459420834642 -0.010188087349444003432 -0.010188085105938519612 0.01044846547497561666 0.011110616172991359327 0.011523635963170356794 0.011332373712049512854 0.0053176649812545634388 0.0036076431477835677226 0.0012316131006879402991 0.001231604514454781368 -0.0010855403087123832034 -0.003635510269252931366 -0.0018231910422323071089 -0.00095425407049539205055;0.0026088129704095967126 0.0018165970200745011794 -0.009041400339278232029 -0.0090414019775271001894 0.012157217504881993528 0.039309711566425556417 0.035946830642811546108 0.026412578667954808576 -0.0042189596889691321699 -0.0063942809852370755333 -0.0077226627389868820334 -0.0077226635025744493415 0.0076978025687229317126 0.0029498285700974972469 0.0050941575897198486736 0.0067871134711017227364 0.0090975912043130841705 0.0068639864831169655757 0.00080645352565031943985 0.00080645382690337405994 0.0024013938002193924159 0.015023644509803252625 0.012471994678142720933 0.0080183283950426356701 0.008324827452798800112 0.0080946901526558392298 0.0077890914202885528153 -0.011196053292267268628 0.020432956766500438156 0.011734129719652278134 -0.0016577791555312643666 -0.001618763922560658786 -3.2084322251060511978e-05 -0.0066362470690835345319 -0.0046519824904004995411 -0.0069205952969905986522 -0.010229979772842052663 -0.010229977519988215154 0.010491440256554275534 0.011156347459603123407 0.01157108146250156698 0.011379023077708922893 0.0053398626988740332047 0.0036225701396536834527 0.0012363859076577172168 0.001236377285305277976 -0.0010896798467360535329 -0.0036501036675136984237 -0.0018302470748716901348 -0.00095774706746546258221;-0.0025759358493681388733 -0.0017928905215425215182 0.0089393275257691664354 0.0089393291452808387731 -0.012019032028635402015 -0.038855653739269330194 -0.035532329834145101599 -0.026109011767539169052 0.0041718866273575969453 0.0063213781114048591889 0.0076326552117274466813 0.0076326559664449643294 -0.0076074370749634398492 -0.0029098603247050634085 -0.0050308234736410814558 -0.0067057528115281343425 -0.0089905226278304724297 -0.0067836039806830920537 -0.00079790153364920637057 -0.00079790183160938362664 -0.0023719795544104860241 -0.014844555435886551409 -0.012323349456097861671 -0.0079224677844451224518 -0.008213761553298839016 -0.0080142307432128790518 -0.0077106168453818608663 0.011072383997465337635 -0.020204740584439502549 -0.011603329096801272627 0.0016388530204401610766 0.0015936607381610210215 8.6921299533025041468e-06 0.006542510745170942825 0.0045886432362122614448 0.00682963207659376733 0.010098627993005371284 0.010098625766297041409 -0.010356880526368468509 -0.011012924493280224283 -0.011422923517087402168 -0.011233471305547406902 -0.0052705994446975868578 -0.0035711856553256472041 -0.0012092942415313574951 -0.0012092857143826737237 0.0010639782849847902527 0.003593106064259132728 0.0017942392307009587607 0.00093239365007895345233;-0.0025935601127850152307 -0.0018057635899030905109 0.008991639405096181481 0.008991641034263538057 -0.012090063640122357749 -0.039090697675892197016 -0.035746732942415940237 -0.02626580952491366569 0.0041958590526160527076 0.0063588876289167005351 0.0076794500557121935305 0.0076794508150383805276 -0.0076545770664123314458 -0.0029320312209915313714 -0.005064734162646338661 -0.0067486099385834028702 -0.0090464542914348820835 -0.0068254859470607319796 -0.00080210256854442297907 -0.00080210286815932531172 -0.0023876758120932118148 -0.014938747892419263971 -0.012401533895647914515 -0.0079729763338594137473 -0.0082753018247276807773 -0.0080524972150340986404 -0.0077482887334140698038 0.011135186250936662117 -0.020320559415318701496 -0.011669493627226919241 0.0016489167820184821422 0.0016081879725477385944 2.7129996321333571703e-05 0.0065956838753831849645 0.0046240619187642552704 0.0068797209535210344586 0.010170184675676484029 0.010170182435385389033 -0.010430146058788281049 -0.011091064467606376667 -0.011503509460006999809 -0.011312614532984830232 -0.0053082630720566233856 -0.0036001356108992421841 -0.0012265843883065470372 -0.001226575813059035177 0.0010806353791046280442 0.003626503015241334775 0.0018167531613630123061 0.00094921135944723482401;-0.0025852451335813429398 -0.0018001084661291818275 0.0089608549410684149028 0.008960856564693957943 -0.012048826039124974421 -0.038958592826951937704 -0.035625798055606130998 -0.026176777868381167352 0.0041813487009018327628 0.0063372054523424233355 0.007653681149065485502 0.0076536819058461462092 -0.0076290339227127372881 -0.0029234604338242500821 -0.0050486314073751141496 -0.0067264678650691411832 -0.0090163503933348553704 -0.0068026599892847105372 -0.00079914824209154251833 -0.00079914854064556983034 -0.0023800875274135996872 -0.014889710415363568638 -0.012360840713029425109 -0.0079469145983393947585 -0.0082513370984502263511 -0.0080221091516756975331 -0.0077193707474011467526 0.011096695236973885129 -0.02024938301934435872 -0.011628255095093855201 0.0016439562517215101922 0.0016040477303963802513 3.3380062083085385743e-05 0.0065780054370998828142 0.0046110608506821594219 0.0068594475329527395194 0.01013931724024360638 0.010139315007459764884 -0.010398444860582842578 -0.011057375904271036018 -0.011468432573672047992 -0.011278102560245327479 -0.0052918461749100007691 -0.0035900369383424636342 -0.0012254415353452326274 -0.0012254329902384320915 0.0010800754254192024718 0.0036179492354221588421 0.0018142702767290632641 0.00094945545541178411227;-0.00261321338555587767 -0.0018200412675454182183 0.0090511035211238849429 0.0090511051612407779354 -0.012170702709567137942 -0.039356728512100647155 -0.035989481175089675646 -0.026443445549496267383 0.004223184782905638375 0.0064014544674733976637 0.007732317836357491779 0.007732318600891819986 -0.0077077582505876438349 -0.0029564113060714988096 -0.0051025733192537415031 -0.0067967608318441671139 -0.0091095152506362048195 -0.0068727580114105353559 -0.0008069650167363686755 -0.0008069653182481217402 -0.0024052165952583768292 -0.015044643952454604674 -0.012489431468859961763 -0.0080297187560253776434 -0.0083430132342830424369 -0.0080974438285367402596 -0.0077923544860990260827 0.011206863144932773316 -0.02045275527177196212 -0.011745115923212876355 0.0016601888496360222864 0.001623887372096781195 4.4962844088633184959e-05 0.0066536345658069822803 0.0046628862556639246936 0.0069349710699091009214 0.010249462860091016619 0.010249460604449717877 -0.010511335145090658361 -0.011177632596253511688 -0.011592848550179559244 -0.011400365829136784382 -0.0053500139064516834958 -0.0036317642145627616543 -0.0012445769142238178023 -0.0012445682839680120152 0.0010978699093445228735 0.0036624266300785282904 0.0018403669688682971865 0.00096646441214931738239;-0.0025807302205042058699 -0.0017963960503724711853 0.0089535049747926642727 0.0089535065969224732207 -0.012038287752180978907 -0.038919408740153427217 -0.035590482362640514513 -0.026151534903770569385 0.0041783799477543457843 0.0063315471072852005582 0.0076453525594155496981 0.0076453533153835245492 -0.0076202316446339927666 -0.0029159072512565417483 -0.0050400468016707040617 -0.006717394182757599648 -0.0090057052847330384959 -0.0067949704768748035374 -0.00079903613682395942773 -0.00079903643523188171496 -0.0023762474586190257368 -0.014870137920444663482 -0.012344584232812984628 -0.0079361876946425265883 -0.0082305439205445588696 -0.0080245341114717986392 -0.0077207685534532530941 0.011089390703205396008 -0.020236105146413791572 -0.011621242441473651416 0.001641587693056794587 0.0015976359990561871983 1.3833566474547087709e-05 0.0065570370347738755543 0.0045983089355861794453 0.0068432853078262507671 0.010118116833645208336 0.010118114603251520886 -0.01037683396585436027 -0.011034206519569872765 -0.011444868885737639885 -0.011255023246964835151 -0.0052808567742974920137 -0.0035790914352109861295 -0.00121405761571893216 -0.0012140490755498628377 0.0010685718604772423412 0.0036022521241978666326 0.0018004329598009171601 0.0009370383223143200456;0.0025798599913180010959 0.001795903572829705714 -0.0089488328846385259419 -0.0089488345059540175264 0.012032136455497652316 0.038900542925609710165 0.035573125786467922615 0.026138639995448086778 -0.0041761005734950963283 -0.0063283306116843586128 -0.0076417782149647501058 -0.0076417789705781336007 0.0076167732567646480313 0.0029154587655795777094 0.0050383364594471218706 0.006714619726805704826 0.0090016718876644672559 0.0067918531160930358317 0.0007984960882183428886 0.00079849638644865366961 0.0023754096525169282779 0.014863913122452764373 0.012339420844077081049 0.0079329295996356206933 0.0082292399561237454531 0.0080184224561008904386 0.0077150934060643411305 -0.011083256506327977473 0.020224727789857621651 0.011614545350723409073 -0.0016410178484323717073 -0.0015978475287085275921 -1.8039042620647660468e-05 -0.0065569468009719295357 -0.0045978295512934010125 -0.0068419614010721005806 -0.010115573517576590193 -0.010115571288229664379 0.010374196842611975444 0.011031435535207662069 0.011441896956067738877 0.011252082967326023158 0.0052794601950512118696 0.0035788805001890689785 0.0012156048038906022094 0.001215596268645481072 -0.0010702475858142075551 -0.0036030685024076589476 -0.0018021071307626039277 -0.0009390072552179370112;0.0025935595710703048151 0.0018055929093700583826 -0.0089941228317033626583 -0.0089941244612719521007 0.012093206539133481356 0.039099326257794372874 0.03575477933995701435 0.026271933968401044168 -0.0041971615735462196664 -0.006360509265245736267 -0.0076809513186705249618 -0.0076809520781476233603 0.0076559199541591637511 0.0029312598221821520826 0.005064774295661056587 0.0067493905534136040825 0.0090479644667685894116 0.0068267325787300442083 0.00080249874178835059295 0.00080249904151735327804 0.0023877488873277280881 0.014940614361092901738 0.012403078861076491032 0.0079738818795110910642 0.0082732285854366423988 0.0080575223204768439689 0.0077528286676730997704 -0.011138791309170564467 0.020327292807580714384 0.011673576869832686526 -0.0016489996778031059104 -0.0016070817502940304682 -2.1031176401401233329e-05 -0.006592657509905353215 -0.004622545754386118283 -0.0068783466893205238643 -0.010168998498523325325 -0.010168996257785532095 0.010428970973549171047 0.011089761819600689463 0.011502302063567471438 0.011311454382179382191 0.0053077101525119156286 0.0035986833285826420881 0.0012237240676761099775 0.001223715489395835708 -0.0010776591725287320948 -0.0036235637500576347095 -0.0018134333080119255724 -0.00094587614179877010836;0.0025727390213825091468 0.0017914930355969929231 -0.0089161569455872072276 -0.0089161585611368509435 0.011988831875042777961 0.0387654719155596586 0.035449101562395314569 0.026046824416874062719 -0.0041603664815066639451 -0.0063056422013113583996 -0.0076158922017171394939 -0.0076158929547664256168 0.007591481710809299191 0.0029100657194279285628 0.0050244337907657254938 0.0066936665257093172499 0.0089720449799922108447 0.0067691322329799926902 0.00079496245896124842403 0.00079496275599365252233 0.0023687181225722107533 0.014817151394151486382 0.012300625603953367279 0.0079082951125492260969 0.0082139270451028704306 0.0079796664270035660288 0.0076788224035424451977 -0.01104112770230011864 0.020146700265921128892 0.011568886130050016342 -0.0016365356896099452627 -0.0015971029016793438036 -3.8797079647186173083e-05 -0.0065494301832323504817 -0.0045905092154165383356 -0.0068280475084460581087 -0.010092101785820806886 -0.010092099564040668547 0.010349982308194383834 0.011005841045582217402 0.011414870834001840383 0.011225421252632990232 0.0052667937506880669121 0.0035739027536893148464 0.0012218610717976469051 0.001221852570058072629 -0.0010772961267643884221 -0.003603164483604583742 -0.0018083717612005303661 -0.00094765062118493754908;0.0025727901713009531694 0.001791152045523000582 -0.008921830195515598888 -0.0089218318119854526926 0.011996026000552047902 0.03878534218227460556 0.035467616758752325279 0.026060897996702855201 -0.0041633287963545760266 -0.0063093542871733403199 -0.0076193663802672827526 -0.0076193671336658988155 0.007594605832695684039 0.0029084244468558836244 0.0050246283432033560928 0.0066955306812750631576 0.008975570609867781699 0.0067720287754956523182 0.00079585332380843136057 0.00079585362109885757816 0.002368931052021204086 0.014821590476729127467 0.01230430095233442031 0.0079104646489163918388 0.0082095388949904330583 0.0079909183520511326698 0.0076889991465822603994 -0.011049325479624094379 0.020161976632386609948 0.011578130950211427616 -0.0016367654009811309895 -0.0015946938468111404152 -2.5360471369602395771e-05 -0.0065429061564058034819 -0.0045872703415781018038 -0.006825170279699053176 -0.010089710222625959332 -0.010089707999811516406 0.010347620784400943586 0.011003211548042729842 0.011412460679990717519 0.011223111483745008485 0.0052656836409564174509 0.0035707736993818559902 0.0012155782714704582367 0.0012155697628594972545 -0.0010707549124798966967 -0.0035967634635338087759 -0.0018010913037882277533 -0.00094031627708062782457;0.00097617242804432945071 0.000687422268061562672 -0.0032710326801726947489 -0.0032710332749435865746 0.0044071475965061701272 0.014319825840920031093 0.013087616188892524718 0.0096067074902778659684 -0.0015209313026015071086 -0.0023205451164429757339 -0.002823240684664616966 -0.0028232409635851173774 0.0028211702788451141141 0.0011405978421326803517 0.0019061492669368840496 0.0025059905817976135985 0.0033360979308950516886 0.0025118799574750517827 0.00028306217978088022737 0.00028306228731412848374 0.0008963245800071719489 0.0055390471504436662731 0.0045986854279946717469 0.0029608490211649038035 0.0032131477494579808833 0.0028021751388061853609 0.002710037886606103414 -0.0040277830957710673496 0.0073388686753805285404 0.0042040469893038345112 -0.00061823890972627132314 -0.00065592718606813274051 -0.00029411905193929435785 -0.0026243926090523729024 -0.0018115721129961066208 -0.0026543237467315091913 -0.0038846055317955964503 -0.00388460470906007568 0.0039819812115168169708 0.0042368613317906068938 0.0043877091304519496434 0.0043136023061985991761 0.0020232030250865763732 0.0014217523988751868715 0.00059332613065423930356 0.00059332304243450587154 -0.00054374337479239597242 -0.0015005475718945016691 -0.00083680383686461656291 -0.00051088788159812166968;0.0025298060253249651103 0.001763039770809672049 -0.0087463194864966040815 -0.0087463210716721764837 0.01176212958771318505 0.038045526910398710929 0.034789388783136351857 0.025560270077012114953 -0.0040797913855141702127 -0.0061866257563876732653 -0.0074762602952383478555 -0.007476261034475632089 0.0074536927319758554053 0.0028690450540178077769 0.0049410103264242921303 0.0065758602741426766536 0.0088099033379529477494 0.0066457623060416507257 0.00077801193389057804461 0.00077801222495350213278 0.0023291327249088202879 0.014555514014564568601 0.012083520623586793685 0.0077696009797396017177 0.0080985398583134412392 0.0078012892039203184449 0.0075100678213618106416 -0.010826556424272897397 0.019750259301371482501 0.011338554618518001393 -0.0016102379981488977763 -0.0015804529774825948514 -9.6575055033891780368e-05 -0.0064705423646715951383 -0.0045295153984684808843 -0.0067288236494913574934 -0.0099372690468113433065 -0.0099372668657798420705 0.010190789232969444528 0.010836924522545077904 0.011238359413869235606 0.01105162617694924361 0.0051843106662114212327 0.0035278777244973588169 0.0012280570747541237446 0.0012280487417323756368 -0.0010869902661128068386 -0.0035712497028318381659 -0.0018095018168824831325 -0.00096298638723025533313;0.0025977082755900674817 0.0018085785716085403703 -0.009007088120079685678 -0.009007089752026386717 0.012110751370663936505 0.039156918057447226422 0.03580735959365435872 0.026310449942872102952 -0.0042031461811459528907 -0.0063697642066428842092 -0.0076923605648708615404 -0.0076923613254723894814 0.0076673689621990920307 0.0029362770430818316628 0.0050727677479301914662 0.0067596840466091420718 0.0090615269284477981127 0.0068369185438167598412 0.00080359142975517001972 0.0008035917299035676923 0.0023914631516985195535 0.014963277201396731411 0.01242188904126175289 0.0079860093812825303644 0.0082871731697942638273 0.0080678471061031379469 0.0077628864190956410954 -0.011154520192531358277 0.020356321105449291797 0.0116902218869218439 -0.0016513908200289321038 -0.0016102116868409838916 -2.3774866791228809355e-05 -0.0066043827347796778618 -0.0046304867222671866611 -0.0068897783469403775167 -0.010185533177051000683 -0.010185530932998629675 0.01044591083950607846 0.011107815778242073265 0.011520956776044220804 0.011329781835639422816 0.0053164314869436068989 0.0036051178503296575119 0.0012270450274827057399 0.001227036437085217771 -0.0010808007599018487274 -0.0036306558242256274129 -0.0018178637065845095096 -0.00094896154114695353832;0.0025975364737979536774 0.0018085170694449939632 -0.0090056444268928632219 -0.0090056460585945848768 0.012108877183313508999 0.039151381946305338633 0.035802243675284062263 0.026306618397976083007 -0.004202422759376253647 -0.0063687887737263124133 -0.0076913397915498718169 -0.0076913405520497345538 0.0076664043506433935879 0.0029363507285624606928 0.0050724218692400919323 0.0067589725610160836591 0.0090604137101527558451 0.0068360414202040054379 0.00080340150383508045565 0.00080340180392446218505 0.0023912826233631061419 0.014961656925986764957 0.012420545756776075683 0.0079851763907536187775 0.0082873525300055459614 0.0080655848405689761771 0.007760812375397951185 -0.011152552741546412421 0.020352659940765783358 0.011688041231643860052 -0.0016512618775224967294 -0.00161048570561801393 -2.5888121186269878179e-05 -0.0066050020498513587267 -0.0046307113842682266422 -0.0068898065869544842035 -0.010185281331580470568 -0.010185279087828498154 0.010445638157173392502 0.011107543488123346534 0.011520624832036446827 0.011329446208840928886 0.0053162718104076845532 0.0036053812871574722303 0.0012279515723167069591 0.0012279429835284618941 -0.0010817570515965714475 -0.0036314350679988857337 -0.0018188921362849270417 -0.00095005126703377718554;-0.002522939630120289798 -0.0017571564340011951773 0.0087386057309127487119 0.0087386073143747543257 -0.01175048706982628928 -0.037997973015474965919 -0.034746905658166647723 -0.025530424235076159406 0.004077059477861508241 0.0061802526094321885361 0.0074656722850085137713 0.007465673023222920042 -0.0074421690971670281106 -0.0028565170969945354908 -0.0049280305323218141431 -0.0065631539705909847093 -0.0087958494116100703619 -0.0066358253529903979059 -0.0007783867211341147143 -0.00077838701213120908232 -0.0023234153905472890687 -0.01452842916387243194 -0.012061017131851576797 -0.0077545950276939334955 -0.0080642546300287894223 -0.007811771892011867488 -0.0075183436876525592749 0.010820465959711950132 -0.019739270306953313194 -0.011333426917102932402 0.001606848182378364711 0.0015692037274738026859 5.8731344358517670735e-05 0.0064347123580426133366 0.0045081753390843392823 0.0067025139784299015561 0.0099035860244397096175 0.0099035838464094153033 -0.010156499443625816026 -0.010800090472521338067 -0.011201062579531602739 -0.011015130792019194733 -0.0051668823170203598619 -0.003509296625044668657 -0.0012069086780392517238 -0.0012069003483605577481 0.0010655047700878586027 0.0035434980697971719087 0.0017840361860661162023 0.00093963894004420449747;0.0025961722747340730544 0.0018081180169031930895 -0.0089928774478254258629 -0.0089928790773708897066 0.012092345692146599587 0.039102893541225557106 0.035757397335984653086 0.026272979446822875699 -0.0041959976133226157061 -0.0063601947761652869937 -0.0076824481677069218419 -0.0076824489273201491957 0.0076580414998182032987 0.0029373398317572123328 0.0050696542684073213694 0.0067529140170630667234 0.0090507800093109873341 0.0068284211009205734305 0.00080168531499030077584 0.00080168561455119791408 0.0023898103322477623131 0.014947808164755738494 0.012409065907839014406 0.0079780851561512232395 0.0082898550796837149751 0.0080449969510387100285 0.0077419721073844300838 -0.011135040384899999588 0.020320062639915811159 0.011668589375951636186 -0.0016501909951162818582 -0.0016132392318565281532 -4.5852252156644666015e-05 -0.0066114954012109457618 -0.0046332830802140465357 -0.0068907431914132753759 -0.010183893951874342654 -0.010183891710742803624 0.010444079409732014152 0.011106054805861881318 0.011518612211348889032 0.011327379536219145742 0.0053152902012580782037 0.0036082298379766942348 0.0012366427823107223154 0.0012366342078897034091 -0.0010909037918807179546 -0.0036391535400675748685 -0.0018287896699173459246 -0.00096044461023799497772;0.0025732706531949103845 0.0017910806231954334248 -0.0089294202639679676886 -0.0089294218816969288949 0.012005763619252240657 0.038813171321954338666 0.035493437147230411099 0.026080375972188450662 -0.0041672141901010302176 -0.0063144017500978448162 -0.0076243708295212217832 -0.0076243715834204018461 0.007599227588061335803 0.0029071248802313791847 0.0050256607890753705187 0.0066986424740407106426 0.0089808491093715907272 0.0067762676098031340843 0.00079694847356691269485 0.0007969487711852295134 0.0023695457723861656878 0.014828806946066216618 0.012310280747779449306 0.0079140992272095055104 0.0082061122915188366295 0.0080044090859719384257 0.0077012741300359023253 -0.011059987841049489024 0.020181818890158971513 0.01159004593261342593 -0.0016372610614745711916 -0.0015923514911859307838 -1.0791837816957482356e-05 -0.0065368918385962787587 -0.0045844998824625124781 -0.006823155368195686632 -0.010088752439851354434 -0.010088750215556495024 0.010346737536410870531 0.011002146411833843911 0.011411698934743974565 0.011222427080349726969 0.0052653464078014061006 0.0035679721374979075747 0.0012089737777533293098 0.0012089652603140836531 -0.0010638465044519355377 -0.0035904113875144250123 -0.0017934965476684380532 -0.0009325253064801928074];

% Layer 2
b2 = -0.038262431231824121924;
LW2_1 = [0.081526697909037951217 0.08163346902824662743 -0.080629508572194460991 0.08036076416669253597 -0.079996748741024345519 0.080392747247720747206 -0.080958135062731986786 0.080961551339876924871 0.08061146804919332165 0.081220359887866161452 0.08142423688426016215 -0.080041652142690405958 0.080700036572345063002 -0.080705326197494597906 -0.078615300221053674434 0.080061308805236375274 -0.081621219342084980197 0.07998131794792506799 0.080869156307016812346 -0.081866592131111151631 -0.080345580846836961442 -0.080466795824718495567 0.080637887915698994168 -0.080928861635744947511 0.080871576496707037185 -0.081009615671329859854 -0.08101067488913218928 -0.081371242627086420862 0.081235674342191768749 0.081563122642443391941 0.081907243502567311788 0.081894981286459958558 0.0819540037929498838 0.080932563450672428962 -0.080689484771090211335 0.080687322323147583902 -0.072797698583653064341 0.081201041373344759466 -0.07997842049708743517 0.081507028645713575088 0.080403099942506051079 0.08048297355744375714 -0.081440074217209917906 -0.080666631139397385053 -0.080371789387454123377 -0.0799258882031936152 -0.08122406732649727068 0.081037619387653525571 0.080934603507683181012 0.08010134532677054553 0.08069953243373455265 0.029634653739018124857 0.077320637583219109512 0.080823084930465860509 0.080729952177741717834 -0.079068776176397709277 0.079843801279960824324 0.081342953996952252482];

% Output 1
y1_step1.ymin = -1;
y1_step1.gain = 3.14134283610484e-05;
y1_step1.xoffset = 16578.93;

% ===== SIMULATION ========

% Format Input Arguments
isCellX = iscell(X);
if ~isCellX
    X = {X};
end

% Dimensions
TS = size(X,2); % timesteps
if ~isempty(X)
    Q = size(X{1},1); % samples/series
else
    Q = 0;
end

% Allocate Outputs
Y = cell(1,TS);

% Time loop
for ts=1:TS
    
    % Input 1
    X{1,ts} = X{1,ts}';
    Xp1 = mapminmax_apply(X{1,ts},x1_step1);
    
    % Layer 1
    a1 = tansig_apply(repmat(b1,1,Q) + IW1_1*Xp1);
    
    % Layer 2
    a2 = repmat(b2,1,Q) + LW2_1*a1;
    
    % Output 1
    Y{1,ts} = mapminmax_reverse(a2,y1_step1);
    Y{1,ts} = Y{1,ts}';
end

% Final Delay States
Xf = cell(1,0);
Af = cell(2,0);

% Format Output Arguments
if ~isCellX
    Y = cell2mat(Y);
end
end

% ===== MODULE FUNCTIONS ========

% Map Minimum and Maximum Input Processing Function
function y = mapminmax_apply(x,settings)
y = bsxfun(@minus,x,settings.xoffset);
y = bsxfun(@times,y,settings.gain);
y = bsxfun(@plus,y,settings.ymin);
end

% Sigmoid Symmetric Transfer Function
function a = tansig_apply(n,~)
a = 2 ./ (1 + exp(-2*n)) - 1;
end

% Map Minimum and Maximum Output Reverse-Processing Function
function x = mapminmax_reverse(y,settings)
x = bsxfun(@minus,y,settings.ymin);
x = bsxfun(@rdivide,x,settings.gain);
x = bsxfun(@plus,x,settings.xoffset);
end
